FF
FC
FC
FC
FC
02
00
FD
FE
00
FC
00
04
FD
04
FD
FD
FD
00
02
03
03
03
FF
FD
02
FF
FF
03
04
00
00
01
00
00
FD
01
FD
01
01
FE
00
FE
FF
00
FD
03
01
01
FF
FD
02
00
FB
FF
FE
FC
FF
04
04
03
04
01
04
FF
FD
05
FC
00
FC
00
FC
FC
FC
04
FF
FE
00
04
FC
FD
FC
FD
FB
03
04
FD
FC
FD
FE
03
FD
FD
03
01
03
04
02
FC
01
04
FE
02
FE
00
FF
FF
FE
02
FD
FC
FF
02
02
01
03
04
FE
00
03
FD
FE
FE
01
FE
FD
FF
00
03
FF
01
02
FE
00
FC
FD
FC
FC
03
FF
03
02
00
FE
02
FF
FF
02
04
00
FE
01
03
FF
FF
02
03
FE
FF
FA
FD
FB
FD
FE
FE
01
02
FC
FD
FC
FF
02
FF
03
F8
FA
02
FE
FF
F9
FF
02
07
EF
00
00
00
F8
04
FC
FD
02
04
FA
FC
FC
FF
FC
01
FD
04
FB
02
FB
FF
FF
03
01
03
03
04
FF
FC
FC
FC
04
01
00
FE
FD
04
03
01
04
03
FE
FD
FE
02
03
FF
02
FF
03
FE
FE
00
05
FF
01
03
01
F8
04
01
01
FD
01
FF
FC
05
FE
02
02
FC
00
FF
FB
03
FF
FD
EB
FB
F7
02
F8
FA
F8
FE
03
F6
FD
FA
F6
F9
ED
03
E8
FF
ED
05
FF
04
F3
FD
0B
07
F1
00
0C
12
EE
03
02
1A
F3
FF
06
0A
01
02
01
04
04
02
FB
FE
FA
03
FC
FD
FC
04
F9
02
02
03
FC
05
FF
00
FF
03
F8
00
04
FC
FC
04
00
FE
00
02
FE
03
04
FF
02
00
FD
FC
03
00
04
01
FF
FF
0E
FD
02
FD
12
FE
04
01
FC
00
08
F8
FC
04
02
FA
F4
04
08
F9
F7
FF
08
00
F1
FA
F0
0C
EF
FC
F2
0F
ED
FC
EC
F8
FC
F8
FA
F6
00
FC
FC
0A
FD
FC
02
10
01
02
05
0E
FD
02
F9
0B
F2
FB
F3
08
FE
FD
F7
11
12
FC
E7
11
0A
FF
F2
04
03
FC
F7
01
FE
04
FE
F8
F7
05
05
F3
FE
FD
06
05
FE
02
FD
FD
F9
FC
01
03
FE
03
00
FE
01
FF
02
FE
01
03
FE
03
05
FE
0A
FA
10
03
0F
02
0D
03
10
F1
FC
FE
10
F0
04
01
07
FA
FD
FD
06
01
F4
FE
00
F9
F5
FD
FE
05
EB
01
FB
00
EF
FA
04
FB
FF
F8
04
FC
FF
03
02
FD
03
FC
0E
01
FF
FC
0E
0C
FA
FC
09
15
FC
FF
05
0D
F4
00
06
06
F8
FB
FF
09
06
01
FB
0A
09
FD
FA
0F
09
07
01
0B
09
04
FB
03
00
FB
0C
01
F7
FF
0A
09
FD
00
0C
0C
00
03
00
02
F2
FF
FF
04
03
FD
FF
FE
04
01
03
FE
05
FF
04
F6
01
FB
0A
F0
0C
FE
0C
F2
18
03
0A
F6
12
FB
03
F4
09
02
F4
06
FB
00
F6
06
FD
FD
01
0B
FA
F9
09
03
F8
FE
07
02
03
FF
00
04
00
FA
01
03
FE
FB
FE
02
FE
00
02
01
F5
FB
07
0B
FD
FB
06
0E
FC
FC
FE
04
00
FD
FF
FE
F7
03
FD
0A
F8
06
FC
0F
05
04
FD
0C
FF
FF
03
FF
FC
FE
08
FE
00
FE
FF
08
F7
01
06
FE
F6
00
01
03
02
FD
FF
01
00
FF
FC
03
04
02
F7
EC
09
FD
FF
F7
08
03
05
F8
11
00
00
FB
13
04
00
04
0C
FA
01
07
0A
FD
F9
05
FC
00
04
09
04
FE
00
08
0A
00
FA
03
04
01
04
03
FA
02
00
04
FF
FD
02
03
F8
FC
0F
02
F7
04
09
05
FB
FD
FD
01
FE
02
FF
07
FD
04
FD
04
FE
02
FC
0D
FE
05
FB
0C
08
01
FC
06
11
05
01
06
02
09
03
03
F1
00
07
07
03
06
FB
01
02
FE
FD
06
FE
03
FB
FB
0C
01
F8
02
0A
FE
F4
F6
11
FC
FC
EC
01
FC
05
FC
FC
FB
FE
03
FF
02
FA
0B
04
FE
02
0A
F5
02
FE
0A
00
FC
07
0E
06
FB
06
11
FD
01
09
0C
FF
FB
FB
01
F8
FE
FA
04
FA
FD
03
06
FC
FC
03
0A
F5
00
08
04
FF
FD
FA
09
04
03
F9
08
03
FF
FB
0D
02
04
F9
06
FF
02
02
FB
05
07
F9
FB
16
00
01
03
FB
01
1C
06
F2
02
0A
07
03
00
FE
05
FA
FD
FA
06
08
02
F2
07
05
03
FF
07
0D
01
04
FA
0E
FC
04
E8
FC
FF
FF
02
F8
FC
04
00
F9
FF
FE
06
FF
FE
09
05
F7
FD
0D
0C
FC
F9
09
07
01
FD
FF
15
F8
00
FA
0E
FD
FD
FD
02
FD
00
FC
FF
01
FD
FC
0A
0A
FC
FB
08
03
03
FC
04
04
00
02
01
0B
01
00
02
06
03
F7
06
FF
03
FB
01
04
00
01
FF
08
FF
F1
FE
F9
03
F9
0D
F6
FE
12
03
05
FF
FC
05
02
00
FD
01
01
00
FE
00
0B
FE
F5
04
0D
FF
0E
07
0C
FD
09
01
0C
03
F9
05
03
FB
F7
01
FC
FC
09
08
06
00
08
07
06
00
0D
07
FE
01
07
0C
FB
00
08
17
FC
FA
07
14
01
FB
F5
0D
FA
FF
F4
F2
FE
FA
F2
EB
0A
FA
F3
F0
FE
FC
F9
EC
02
FE
F8
EE
0F
FE
F5
F0
08
01
05
EB
0D
00
06
ED
0F
FC
FC
F8
02
01
08
00
0A
FD
F6
F9
FF
FC
EA
0F
FE
00
F9
FF
07
FC
FD
06
0F
FE
02
04
03
FE
FA
02
07
FD
F6
14
11
FB
F8
0A
0E
FF
0B
06
08
02
F8
11
0B
FC
FA
08
00
FC
07
09
02
02
11
03
FF
00
15
0E
FC
FA
08
19
FB
00
06
13
F6
FA
FC
11
FA
FD
F4
FF
F2
03
F0
EA
FC
FB
F5
DA
01
FD
FC
DF
FD
FC
F8
ED
01
02
F9
EE
0A
FD
07
EE
0A
FF
07
E9
15
FE
08
ED
18
FC
04
FD
07
00
04
FB
11
00
F9
F0
09
FF
FD
FC
FA
02
01
FB
FA
00
06
0F
FA
04
FD
05
07
02
F8
05
0A
FF
F7
10
0C
00
F3
0E
10
04
FD
FA
13
01
F2
08
08
FD
F1
0E
FE
03
FE
0E
FA
00
0A
05
03
01
0E
08
04
06
FF
0F
FB
F8
FE
0D
FE
00
01
03
F7
FF
04
EF
F1
00
06
E5
00
02
0C
E7
0B
FE
05
F3
00
02
03
FA
03
FD
08
04
12
FD
0F
02
14
01
05
F1
0D
00
09
F4
0A
FD
0B
FA
01
FF
01
FD
09
00
05
FD
FC
03
09
FD
F0
FE
05
EE
EC
02
07
07
FE
FD
FD
07
0A
FF
02
05
07
FF
F8
0C
05
03
F5
05
11
01
EE
00
0B
FE
EA
0A
05
FD
F8
0E
05
FB
FF
0F
F6
02
06
02
F4
02
0B
08
FE
01
01
0E
EF
01
0D
04
F7
00
12
FA
02
03
11
F1
FC
FB
15
E8
0C
FB
13
EE
0D
FA
06
F1
0C
FC
06
F8
0C
00
06
FA
11
FE
07
FB
0D
FD
04
F7
FF
03
0C
FE
FE
FF
06
01
FE
02
FC
FE
FD
FE
13
0C
F5
01
FE
01
DD
01
01
E6
E9
FC
FD
02
02
03
00
FA
11
01
FD
01
03
FE
FE
FF
06
FE
F3
06
06
FC
F2
01
0E
02
E9
0B
02
FE
F5
0D
05
FC
F5
0D
F3
FB
0A
03
F0
FB
0B
08
F6
FE
03
04
F8
00
0F
FB
00
00
19
EE
05
F8
17
F1
03
FE
1C
E9
05
01
11
EB
FF
FE
03
F1
0C
01
04
EE
06
00
04
FA
05
FA
02
F4
03
FB
01
FC
F7
02
02
FC
04
FB
F6
01
FA
03
F9
01
EE
FD
01
00
E0
00
01
0A
E5
03
FB
E5
EB
04
F5
FE
F5
02
FB
04
FF
FE
FC
0B
FE
04
FE
02
07
04
F3
15
0A
FC
E7
FF
06
01
E0
0E
01
FD
E9
03
04
FE
EF
FF
FA
FC
FE
03
F8
02
FB
00
F3
FE
02
FE
F8
FC
02
FA
F4
01
17
EF
02
00
1E
F3
09
01
1A
F1
0A
FB
0E
F4
0A
FE
09
F7
0D
03
07
ED
01
FE
03
F2
FE
02
F5
F7
FA
00
F2
F7
00
FB
F6
02
00
FE
FA
FB
02
FC
FD
02
F5
FB
06
01
E7
FE
17
04
ED
04
06
E9
FD
FD
F1
06
F1
02
F9
06
00
03
F3
07
FA
02
07
F8
08
FE
03
03
02
FF
F8
03
F8
FD
EE
FE
03
FC
D9
01
04
03
D8
FB
03
FE
DA
F9
FA
FF
E7
FD
F0
00
F0
FB
EF
FD
FF
F5
F8
FC
0C
F4
04
FA
0C
F5
0C
01
17
EF
08
FB
0B
EE
07
FD
00
E8
08
FB
04
EF
02
FC
02
ED
FE
02
F7
FD
FF
02
F4
FA
03
FB
FC
01
07
FC
05
FF
07
01
06
F8
03
00
0E
0C
FB
FD
14
01
F4
FC
08
EF
F2
00
FC
0C
F6
FE
F2
06
00
FC
FA
02
02
05
0A
FC
03
FD
08
FA
01
04
F5
09
FF
FD
E9
F9
0F
FD
D9
01
0A
FB
D5
FC
05
01
D7
F9
EF
FE
DA
F7
EB
00
E6
F5
F1
04
EA
F4
F8
FC
F3
F9
FB
FF
01
FB
11
FA
06
EB
0E
FB
03
E9
05
00
00
F5
0A
FB
FA
EB
01
FF
F8
F9
05
02
F9
F7
04
FC
F2
FA
05
03
F8
F9
0B
04
FE
00
F6
FB
04
02
F2
00
0C
05
E9
FC
08
00
E4
FC
FE
F7
ED
FC
EE
FF
F9
00
EF
04
F4
03
04
03
02
FC
05
F8
09
01
06
F9
F9
FC
FA
02
02
01
EF
F6
09
FF
E2
FB
01
FE
E0
F5
F4
00
DE
F4
F0
03
E3
F1
EB
FC
E7
EF
F0
00
DA
FA
F1
FD
DC
F7
FE
FB
DD
F6
01
FD
EB
E8
06
FC
F1
E8
06
FF
FB
ED
04
FF
F6
EF
07
FE
F8
FE
03
FD
FF
05
FD
FC
FC
F9
FC
03
F8
FF
FB
00
05
FC
EA
03
05
00
EE
FF
13
FE
F3
04
12
FC
F9
FC
F9
FD
00
05
00
F6
08
FF
F4
F4
F7
03
FC
02
05
FD
FE
F9
06
01
02
F8
01
FB
02
FA
FA
02
FB
FF
01
03
F4
ED
FC
FB
F5
EE
F9
00
EC
F1
ED
01
EB
F2
F5
FE
EB
F2
F1
FC
EA
F2
F0
01
E4
EA
FA
FC
DC
EF
00
FA
EC
E3
08
FA
F4
E8
07
FB
F6
F0
05
FE
FF
F7
05
FE
F8
FF
06
FD
FB
FC
FD
FE
09
FB
F3
FA
05
FF
F1
02
FE
07
EB
FC
FF
03
E8
FF
0C
F6
E5
FE
0D
F5
EA
02
FC
FA
00
00
FC
F6
18
04
05
F9
00
FC
00
FE
0A
00
FA
F8
07
FF
FC
06
FA
02
12
FC
FC
03
00
04
FA
01
06
F4
FB
02
F9
F3
F9
00
F2
EF
F3
03
EE
F2
F4
FB
F4
F6
EC
FB
FD
F0
ED
01
F5
F6
EE
FE
F3
F6
FC
FE
EE
E7
00
01
F1
E6
05
00
F6
F7
04
FC
01
FA
02
03
01
FD
0A
FB
07
01
FC
00
08
00
EB
02
01
0C
E2
FD
FE
0A
E7
00
FE
07
E7
FE
0E
F9
E4
01
00
FD
EE
FF
06
06
05
FF
F5
FB
03
04
06
FF
FA
01
FF
FF
00
02
05
FD
06
02
FF
05
ED
FF
0A
00
F8
FD
0D
02
FF
FF
09
02
01
02
0B
F3
02
04
00
F1
F8
FE
F9
F9
EE
01
01
01
F4
FC
04
FC
F1
01
05
FC
F4
FA
F7
FD
F4
02
F6
FC
FD
FB
F3
FD
07
FA
F9
FF
04
01
01
07
09
FD
08
07
06
FA
0C
07
F2
01
02
06
E6
01
00
08
E8
01
03
01
ED
07
02
09
F7
01
07
00
EC
FC
FF
F8
F2
FC
F8
10
F7
02
FD
FB
0C
02
02
00
04
FE
01
FC
03
FD
06
FD
06
04
00
FB
F3
01
03
FE
FE
FB
0F
FE
FD
FF
14
06
00
04
0F
FD
06
04
08
FD
0A
03
05
07
F8
FC
05
06
F8
02
05
07
F8
01
03
0D
FE
02
FC
11
FE
02
02
11
00
FC
FA
0C
01
FE
04
0A
03
02
04
0F
03
FF
03
09
FA
01
01
0B
E1
01
03
06
E0
01
06
08
E5
06
05
07
EF
01
F8
03
F1
00
F7
0C
F2
FD
F1
0F
F1
03
EB
09
FC
FC
FB
01
08
02
FD
03
01
FD
00
FD
04
FD
0A
FF
05
04
F6
FA
F5
FD
03
FE
FB
02
0F
FF
03
00
0C
07
07
FF
08
03
0E
FC
03
F6
0D
FE
04
02
00
FB
03
04
F9
01
03
07
FF
01
09
0C
FF
02
FD
07
FE
FE
01
0E
FB
FC
08
0A
04
F9
05
0F
06
FC
03
12
01
FA
08
0C
EC
FA
03
0E
D7
FC
03
09
E8
00
01
06
E2
02
FE
02
E5
07
F3
06
EF
04
F1
0C
F6
01
ED
02
FC
03
F4
07
01
03
01
FA
07
01
FD
01
00
00
FC
00
FC
FC
04
FF
FD
FF
0D
F8
08
02
13
03
F7
FB
04
07
04
FF
0B
0D
03
FC
03
08
06
FC
01
FF
02
01
09
FF
FC
00
04
04
F2
02
02
06
FC
01
04
02
FB
FC
FE
0B
FD
02
01
09
06
01
02
0A
08
01
02
0F
00
03
00
0F
F4
FE
00
10
E4
FC
00
0D
DB
FD
00
0A
D9
03
F9
0A
E0
05
FC
0D
E4
FE
F1
06
EB
FC
F3
F8
EF
04
F9
FB
04
FE
FE
F7
04
04
05
F7
06
02
02
FF
04
03
02
03
03
FD
01
03
03
01
0A
03
0F
04
0B
06
0B
02
07
08
0E
03
05
0D
19
03
00
15
12
01
06
0D
0C
FE
06
07
FF
02
06
04
FC
FB
0E
FC
06
FD
02
02
03
00
FA
07
05
01
F4
0C
0B
FD
F6
04
FF
F8
F2
0D
F9
FE
FB
08
E5
FA
F5
16
DA
01
F9
13
D1
FA
F9
0B
D9
FA
FD
0E
E4
01
FC
0E
E9
05
FB
0C
ED
FD
06
02
F0
02
FF
00
F7
04
00
FC
FA
FC
00
03
FF
FC
FF
04
FE
FE
01
FD
FD
00
00
03
03
FF
0B
F7
06
03
F9
07
05
FF
02
FA
12
01
F9
F8
20
FD
F0
0A
07
FF
FA
03
0A
02
00
0F
13
05
0C
02
1C
FE
05
F9
12
FF
FC
07
04
FC
05
14
FF
FE
03
09
FF
01
FD
00
FC
FF
F9
FE
F6
FE
FA
03
EE
04
FA
0A
E6
00
F5
0E
DF
FD
EE
1F
ED
FB
F5
19
EF
FD
F5
19
E9
04
F9
15
F4
00
07
04
01
FE
05
07
00
00
00
FF
06
03
FD
00
00
04
05
FC
03
FC
FC
01
01
03
FD
01
02
01
04
FD
03
04
08
FD
FD
04
09
FD
0C
04
FB
FB
0E
FB
F3
FE
0E
FD
01
FD
08
03
F8
0B
0D
03
05
00
16
01
0A
FB
16
FF
FF
0C
FC
02
01
03
F8
FD
F4
0D
05
FE
01
18
13
00
01
16
0F
02
01
19
02
FC
09
02
04
03
0E
11
F7
03
EF
2B
FD
FF
F6
1B
FC
FF
F5
10
FE
FC
F2
0E
FD
00
FA
0C
FA
FF
02
06
F8
FD
FE
03
0F
03
04
FD
FF
FE
FC
FC
01
00
02
FC
02
01
FC
FC
00
FE
FE
02
00
FE
03
00
02
FC
FF
FE
09
03
F6
03
12
04
FA
06
06
FE
F0
FE
FF
02
ED
06
01
FF
F5
0C
06
02
F6
11
05
01
FA
07
FF
FF
F2
0C
F9
01
EF
2A
FF
00
FC
1C
0B
FE
08
0E
08
02
FA
0C
03
01
EE
1A
FE
04
FA
05
02
FF
FB
FE
07
02
FA
06
00
02
FB
0C
FB
02
F9
05
FB
04
00
02
02
04
04
FF
00
FF
FF
FF
04
FD
FC
00
01
FF
01
00
FE
FC
FF
FD
02
04
02
02
FF
FE
FD
03
FC
01
01
FC
00
FF
03
FF
00
FD
FD
FE
FC
FF
02
FE
FE
FD
03
02
00
FF
FC
FE
FD
04
01
FE
FF
FD
03
FD
03
FC
FD
04
04
FD
FC
04
FF
08
00
02
FE
04
00
00
FD
FD
FE
FF
FE
03
01
00
03
04
00
00
00
FF
02
01
00
00
01
FD
04
FE
04
03
FC
01
FD
02
FD
FE
04
FD
FC
FE
03
04
01
00
03
02
03
FD
FD
04
03
FD
00
FD
03
FD
04
FF
03
FE
04
FF
02
04
03
03
02
FF
00
00
03
01
FE
FF
FE
FD
FC
01
FE
FB
F8
02
FE
FC
F9
00
FC
FC
FE
FB
02
00
F6
FF
02
FD
FC
01
FC
01
FA
01
02
F8
FC
F7
FD
FD
FC
F6
01
FE
00
00
01
FD
FA
FE
04
04
FF
FE
F7
05
F4
FF
F0
04
F5
02
FA
01
F7
FF
F4
00
F6
FF
F6
FF
F8
FD
FA
FD
FC
01
FD
03
FD
02
FB
FF
02
FC
FC
00
00
03
02
FE
04
FF
FF
01
03
01
01
03
02
FB
FD
FD
03
02
02
02
FC
02
FC
03
FF
FE
0A
FE
FE
FB
03
08
01
FA
FD
FC
F9
FB
FF
FE
F6
F8
02
05
F5
F8
01
10
F4
02
F2
0A
F2
09
F4
FF
F2
FE
F7
00
E7
05
EC
02
EF
01
EF
08
FE
F9
F0
05
01
F4
ED
01
04
E7
EB
01
01
F0
F9
00
01
FC
F9
F6
FB
F7
F2
FA
F1
FE
F3
F9
F0
F8
EF
F3
F4
FD
F2
F9
F2
F6
EF
07
F7
F9
ED
07
F6
01
FF
02
04
04
02
FF
03
FF
FD
FC
02
04
FE
FE
FD
00
FB
0A
FF
03
F1
0C
FB
02
0B
FC
F4
02
13
07
FD
0A
F9
02
FA
0D
F8
0A
EF
0A
F5
04
E7
01
EC
0B
EF
04
E8
04
EA
0D
EA
11
EA
09
F8
14
DF
0B
F8
06
DA
0B
F8
FE
F6
0D
04
FD
01
0B
06
04
0A
FF
F9
06
09
F6
FF
02
04
F5
0B
03
F5
FB
FE
03
03
F6
09
00
01
EC
0A
F9
FD
EE
FD
F1
FA
ED
03
F6
F4
FB
03
09
FD
FF
07
08
FF
08
02
FD
FD
02
FC
FD
03
04
02
FE
FF
03
FF
0C
04
FD
F2
FE
F0
F8
04
00
FE
F6
F9
01
F6
02
0A
11
F9
25
03
00
F8
19
F7
F9
F4
0E
ED
F7
F3
0E
EF
01
F6
0F
EC
08
F5
07
FE
05
EB
01
02
FD
00
FF
02
F9
02
00
00
F9
0A
08
07
FE
0E
08
08
FE
0F
0A
06
04
0D
0D
FB
04
FE
FC
FC
04
02
FC
00
F7
F8
F5
09
FA
F8
00
03
04
FE
09
07
02
09
00
12
06
0A
05
1C
F9
FE
13
1E
F4
F6
04
07
FF
01
FE
FE
FC
FC
03
FD
09
F7
07
E9
06
EB
08
08
07
F0
02
00
05
F8
FD
08
02
FB
0A
0B
03
FC
09
FF
0C
F8
0D
FA
03
FB
08
FA
02
FA
0F
FD
FF
FB
0F
FF
F7
04
08
0A
FC
05
0E
0D
FB
04
07
0B
02
0C
04
04
0A
0C
07
FD
FD
0A
09
06
FC
0A
0C
01
02
08
0B
FA
04
FC
0B
04
02
FE
09
F8
05
FD
0C
F9
06
FE
08
FB
FC
02
FE
FC
EF
04
08
0B
EE
F1
08
11
F2
F9
FE
04
01
FB
03
02
06
02
05
F7
01
FA
FF
08
04
F9
02
F4
11
F2
00
F4
0A
F3
FE
FD
05
ED
09
FA
0E
F2
06
F3
05
F8
07
F7
0D
FB
08
F1
08
04
09
F5
FF
01
09
FC
FF
0C
07
FC
01
05
0B
0C
02
03
0E
0C
05
02
02
0D
06
0E
04
10
05
07
08
09
05
07
0C
00
09
08
0B
FE
FF
F9
0C
06
F9
04
0A
01
FF
02
0A
05
FC
FD
05
0C
FB
ED
05
07
E7
FC
13
02
FA
F6
13
04
F9
F8
09
FC
FF
03
01
00
0B
03
05
F8
02
02
FC
0A
0D
FA
07
F6
12
F0
07
EE
0A
F3
03
EB
09
F3
0C
E9
0E
EB
00
E2
08
F3
01
E5
0D
03
FB
EB
06
05
FE
FC
0B
08
02
02
0B
06
02
01
07
02
09
FF
0D
F5
0B
0B
06
F8
05
10
0D
F8
01
0E
0D
FA
09
08
03
08
05
02
09
09
0B
08
00
FE
12
00
FD
0A
0A
F9
FE
0C
FE
FA
F7
05
FD
0D
EF
FE
01
0B
F2
F9
10
FB
F5
FC
15
FA
FD
FC
0E
FF
04
FC
FE
09
0B
0B
00
F6
FF
00
FC
04
FD
FA
0A
0D
0C
F2
0C
F6
0F
EF
04
F1
FD
F9
FD
F4
07
F6
F9
E9
07
00
F9
EE
09
0E
F8
FB
16
0C
F4
FF
0D
03
EF
0A
0A
FB
FA
FF
0A
F7
F7
08
11
F0
0C
01
0E
F2
04
08
04
F7
03
04
07
F7
06
05
05
06
08
04
FB
08
FF
00
FD
FD
0C
FF
F1
FA
04
05
02
03
FA
FF
FF
01
F5
FC
E6
FD
FA
14
F7
FA
03
0F
F9
01
0F
13
06
04
01
05
04
09
03
FF
02
08
FE
03
FF
FE
04
0B
FD
04
04
FC
02
ED
0E
E5
08
FC
03
EA
01
00
F9
F7
02
00
FE
F1
04
04
FB
F4
08
0B
F7
FB
0D
0B
EF
07
03
FC
EC
02
0A
F6
F4
FE
FA
F8
ED
02
FA
F8
EE
00
03
FE
FC
F4
F9
FB
FC
FB
F8
F9
FA
04
F7
04
02
FF
F3
06
FF
FC
F4
0A
FF
0A
F5
04
07
FD
03
02
FC
01
FA
00
F8
07
EB
00
07
0B
ED
02
08
1A
F3
06
05
0C
05
F8
08
F4
00
07
02
FA
03
FF
FF
06
06
FD
01
FC
F2
01
06
00
FB
F6
FA
E8
01
0C
FD
F6
F7
06
FF
F5
00
03
F7
F4
FD
0B
F8
F8
F7
09
F3
FD
F5
02
ED
07
E7
FE
F1
00
E0
F8
F2
01
DC
F6
EF
FB
DE
FB
E7
FB
F7
F8
EF
F6
FA
FC
F6
F3
F3
FF
F3
FC
F7
05
F8
FE
F6
0E
FB
03
F5
0F
02
08
F8
05
07
FC
F5
FF
00
11
EB
FB
FA
12
EC
F5
01
10
F7
F3
02
18
F4
F8
09
03
07
FC
08
F6
03
04
03
FD
F5
0B
05
E6
00
FF
FE
FA
F6
0A
F3
EB
F1
FA
EC
E4
F2
0B
F9
FF
F5
08
FD
F5
DE
0A
FB
F5
E4
07
F3
FE
D3
06
F1
06
CC
01
F0
08
D1
01
F3
FB
C6
FB
F9
FB
D1
FE
FA
07
E5
FD
F2
06
F7
FB
E4
08
F7
F9
E8
03
F9
00
F3
04
F7
01
FF
0B
F7
06
01
02
F6
0C
0C
02
F6
0E
01
00
F3
03
05
0A
EF
FA
FA
18
FA
F6
F8
1A
FB
FA
FA
02
E8
F9
00
17
F4
01
07
FE
FF
05
FC
04
00
07
F9
03
FA
05
F9
FF
F1
0A
F8
EC
DE
08
F2
F2
D7
08
EE
F9
CE
07
01
F0
CD
FF
00
E7
C4
FD
FD
00
BE
FF
FD
04
C9
03
FA
08
DA
F9
FE
04
E4
FD
04
04
F1
00
F6
0D
F8
F6
F0
0D
FD
FB
EC
0A
03
FE
F0
01
F7
01
EF
0F
FD
08
F9
06
F2
12
07
0B
F2
13
0C
0A
F8
0C
0B
00
F3
03
01
08
EF
FF
FA
18
FA
F8
F6
0D
02
F4
EF
F6
FB
FA
01
04
F6
F8
09
F3
F7
FD
FF
FC
FF
07
FC
FB
FD
06
F8
F5
F2
0C
F8
F3
D4
05
FC
EF
CC
FF
FD
E9
C8
FB
F7
E3
CB
FD
03
EF
D3
FE
FB
FF
E7
FD
FD
12
FA
03
FD
0C
FD
00
02
06
09
FE
08
10
13
FD
F8
0D
06
FD
FC
11
07
FC
EE
0E
05
03
EC
07
FA
0A
EB
03
F7
0D
FF
FD
FF
0F
03
09
F8
10
0C
07
FE
02
0E
02
01
04
0D
00
FC
F4
03
05
06
EB
F4
FD
0B
FB
FC
FA
00
03
07
FB
02
03
0A
FB
04
F9
0A
04
FD
FA
FE
02
FC
01
FD
FD
F9
0B
FD
EC
E8
09
09
E2
DB
FC
02
E5
F1
00
00
EA
F8
FC
04
F7
08
FF
FB
00
0E
FB
F6
09
16
01
FB
05
14
FC
F8
0B
10
FD
FC
0D
15
00
04
13
09
F9
08
08
05
FF
F4
05
06
FD
E7
00
00
0F
E7
07
01
05
EF
FA
05
0D
FD
F9
F6
06
0A
05
FE
FD
0A
FC
02
02
0B
F9
08
EE
04
FC
07
F7
FA
05
05
02
F9
08
0A
0A
11
ED
04
00
09
F6
FC
FF
06
01
FD
01
03
07
F7
FB
01
FA
05
19
04
EE
F4
17
FA
F8
FC
03
03
F7
0C
FB
05
F7
11
F9
F3
FC
1A
F8
EC
FE
19
FE
F9
FA
19
F8
01
03
09
F6
F9
01
08
F7
FE
08
04
F5
05
04
03
F8
00
05
06
01
F3
00
05
05
EC
04
08
0A
EB
06
05
FF
FD
07
FD
00
00
F8
EF
FA
02
F8
FA
FA
0D
E9
F7
04
FA
F8
09
F6
FF
0A
0D
FC
04
0D
04
F8
F5
06
0E
05
19
F9
15
05
02
FD
FE
05
FE
FB
FF
FF
06
03
F8
FC
0A
02
00
11
05
F4
FF
17
FA
05
0E
00
03
06
1B
FA
FC
F6
10
FB
E5
F5
10
05
E8
F2
10
01
ED
F3
0A
FA
F3
01
06
F9
FB
00
FE
FE
04
04
01
00
03
00
01
04
F4
FD
FE
FF
EF
08
05
09
F0
0A
07
09
F7
0C
07
FE
04
08
00
F7
08
F6
F9
FA
05
F5
02
FD
FE
E4
FC
FE
FF
ED
08
F9
F3
05
10
F5
02
03
17
FB
F9
FA
14
11
0F
F5
11
09
00
09
00
FF
FF
FC
F9
FD
02
09
00
08
05
FF
F7
01
0E
F9
F7
11
F9
01
08
FF
F7
02
0A
FF
FC
F3
08
03
F5
FB
0D
01
F6
F3
08
05
F0
F3
05
00
F5
F4
00
03
F8
F8
FE
0A
F6
F9
02
0B
FC
FB
FF
01
E9
F7
04
05
E9
0D
00
04
EE
17
F9
03
02
19
03
F9
0C
01
06
F6
03
EF
01
FB
F9
ED
02
FE
FB
DF
FE
04
F6
EA
FD
00
EF
07
01
03
F9
0A
0F
FC
10
01
0B
08
0F
05
0A
0A
05
0B
FE
0B
01
FF
FD
00
FF
00
FC
02
03
04
FA
01
0A
EC
F7
08
F7
FB
05
01
F8
09
FC
09
FC
FE
00
03
02
FF
FF
06
FE
02
01
04
FF
FA
05
FD
FB
FC
FB
08
F7
FF
02
05
F1
02
05
07
F0
F9
02
FD
E8
FD
FD
00
FB
0A
03
FE
08
12
02
FF
09
16
02
00
0B
00
08
FA
0B
EC
FE
FA
F9
DE
02
FE
01
D9
00
05
03
E7
00
02
FC
F7
04
02
07
FD
10
FA
12
FD
10
05
0B
11
07
FF
06
F6
F9
FD
01
06
F4
07
03
FD
FE
05
0A
FD
02
06
05
F2
F7
0D
F4
F5
FD
0F
FB
08
FC
0B
00
0B
F5
03
04
FD
F5
00
05
07
FC
01
FC
FE
05
04
F9
F9
0E
FA
06
FD
01
05
06
05
07
03
08
FC
FE
02
FA
03
03
04
00
07
FB
00
05
10
FF
FA
FE
19
FD
FD
08
0C
05
00
FC
EB
FD
FC
00
D4
FD
F7
FC
D6
07
FF
01
E3
09
05
05
FB
00
06
0A
03
0A
F9
07
02
14
0C
0C
FF
0A
01
04
F3
00
02
00
FD
F7
05
04
0B
09
12
10
F3
0C
14
18
F1
F3
10
F1
F5
FE
07
02
08
FF
00
03
05
FB
00
05
FF
FE
FC
0B
03
00
FC
06
F9
05
FB
02
FE
01
FE
0B
FB
07
03
0F
01
02
06
0F
08
02
F6
0C
FD
FF
F7
0B
FD
00
00
08
04
01
01
02
15
00
05
03
FF
FE
01
FF
DD
FD
FB
FC
C8
FD
00
FA
D0
00
FC
00
ED
04
0A
06
FB
06
0E
09
00
05
FB
FC
FF
08
07
07
FF
F9
FC
05
05
FD
FD
03
F9
04
05
0D
F8
0B
09
0E
F6
0A
0E
1A
F6
F8
0E
F8
F6
00
0B
F9
00
F9
04
FA
0B
FB
F8
05
04
FB
FB
08
FD
03
04
02
FE
0A
F9
0E
FF
09
FD
0F
03
08
FE
17
00
03
FA
0B
01
F9
F1
12
01
F8
F5
0C
FA
FD
F6
03
FB
FB
FE
01
FC
FF
00
FD
E2
07
FA
FA
D5
01
FB
FA
C6
0B
06
FC
CF
FF
05
07
E2
09
0A
14
FA
0E
05
12
00
0F
F5
14
03
12
F5
12
FF
FE
FC
04
FC
FE
02
FC
FB
FA
00
FB
FE
07
0D
0C
F0
01
05
0B
F8
08
06
FF
F8
02
06
F1
F8
F9
15
F0
06
FA
0A
FB
05
FC
05
07
FF
FC
00
10
FA
FD
FD
0A
06
FE
07
14
09
00
01
0B
0B
04
F8
0F
05
FE
F7
13
06
FD
F3
0B
01
02
F0
0D
F7
FB
EF
FF
EA
FC
FC
04
D6
04
01
02
D7
09
06
04
D1
05
0D
05
D6
01
08
1B
E3
0D
05
24
F9
10
06
19
00
08
02
0D
FB
02
F7
05
FC
04
FC
FF
00
04
FE
FC
00
04
02
02
03
F4
F4
09
03
FD
F3
08
FF
FE
F4
FD
FE
02
F4
00
02
04
00
03
F5
09
0B
05
01
06
01
01
0A
09
F7
10
00
FC
FE
12
FD
03
04
16
0E
00
FC
10
07
01
FD
07
05
FA
F6
0E
09
FD
F8
0A
FE
F9
F3
03
F0
F4
F9
06
E4
FC
FD
02
DC
F9
06
04
D6
00
06
08
DB
0C
06
13
E3
0B
08
1E
F0
03
00
20
FD
0A
04
12
07
06
00
07
FB
03
FB
03
F4
03
FE
02
FC
02
01
03
02
00
00
FE
FE
05
00
F6
05
F1
F3
01
09
FD
FA
00
01
04
FD
FF
07
FB
02
FB
01
02
FB
04
0D
00
F6
0B
08
00
F5
09
03
FE
FC
01
03
03
FD
07
09
FD
00
09
11
F6
00
08
0E
FC
F8
0D
FE
F6
F8
08
05
F4
FC
03
FB
06
F8
0A
E1
F8
F8
0C
DF
F7
FF
F8
E2
FB
01
FE
E8
FE
05
05
EA
FD
06
13
F4
F3
00
19
FE
11
FD
16
FB
07
07
06
FE
03
00
06
FF
FB
FF
04
FE
00
FD
04
FD
00
00
FF
00
F3
FD
01
03
04
07
03
FA
06
02
04
F7
00
FF
FE
0A
03
FC
00
04
17
05
0A
05
0A
FE
01
02
08
FF
FF
07
0A
04
02
07
07
FA
03
02
04
F7
03
02
FB
F6
01
FE
00
FC
F5
FE
13
F5
F3
01
0E
F1
EF
08
06
EF
FA
FE
F1
F1
FB
F2
E6
F4
F8
F6
F0
FF
FC
F2
EF
F9
FC
EA
F3
EE
00
F8
F5
EB
03
00
04
EC
FE
F7
02
04
00
00
09
05
04
FE
02
FD
02
FD
02
FC
03
00
FD
FE
00
00
FD
04
01
FF
FE
07
FC
07
FF
07
FD
12
F6
0A
FF
1C
FA
08
04
14
0A
0E
FC
0D
04
11
F6
06
09
0A
E9
08
0A
03
EB
09
16
F2
F4
0E
06
F4
F3
0E
06
F3
F5
01
0E
F8
F8
0F
0A
F2
FB
09
01
F9
FB
0A
F5
F6
FF
11
FD
FD
FD
11
FE
FE
F9
0F
F0
01
02
04
EF
0A
FD
FE
FB
07
06
03
FC
11
FC
0B
04
06
FF
09
FC
03
01
05
03
01
04
01
FD
02
FC
04
FD
FF
04
04
02
FC
04
01
00
FC
03
FD
02
FF
01
FE
02
01
00
FA
FE
FF
FF
EE
04
0C
FB
02
00
0E
FC
02
0B
0D
02
01
0B
06
FF
00
0F
00
FB
FD
1C
01
FC
08
1E
04
FD
FB
1A
06
FF
F8
0F
03
00
05
15
05
02
0E
17
FD
FA
02
0B
0B
FB
03
0B
09
FF
04
01
0D
FC
FD
00
10
FC
02
FF
20
00
00
FC
0E
02
01
04
08
FD
03
02
FD
FC
FC
FC
FF
03
FC
01
01
04
FC
FF
00
01
FD
FC
02
FC
FB
FE
02
FC
00
02
03
02
03
00
01
00
FE
03
02
03
00
04
FC
FC
FF
01
03
FF
FC
01
FE
02
02
FC
03
FF
01
04
02
FE
02
04
FF
FC
FD
04
04
08
FF
FF
FD
0F
00
02
FE
03
03
FD
FF
02
03
01
01
03
FC
03
FC
FE
FE
FC
01
02
03
00
FD
04
03
FD
03
FF
00
04
03
01
03
FD
FE
FE
00
01
04
FC
04
FE
02
FF
02
02
FC
00
FF
FB
FE
03
FC
00
FC
03
FD
03
00
04
04
02
FC
00
FD
FD
FF
FC
FD
00
01
FD
FC
FE
FC
01
FE
03
04
02
02
03
02
00
FE
FD
04
FF
FE
FE
00
FD
FA
02
02
00
FD
FE
02
09
01
04
FD
08
05
01
FD
04
02
03
FD
0E
FF
F9
04
01
F3
F8
04
01
F7
02
02
07
02
04
02
17
01
00
FF
0C
02
FE
04
02
08
FE
FC
FF
FE
FF
00
03
F7
FE
00
FE
FC
01
04
FF
00
01
03
04
FC
FE
03
00
00
00
FC
01
01
FE
01
FF
FD
00
02
02
00
01
FD
00
FF
FC
03
08
06
03
FE
FD
FA
FC
03
F6
FF
FD
01
FF
FF
03
01
09
06
FE
02
03
01
05
FE
0C
0A
07
FD
0F
12
05
04
18
0E
05
03
0B
0B
08
00
0C
16
FB
FC
F6
13
FA
FD
FD
19
F8
FF
00
16
F4
00
FD
0B
FB
00
F5
11
FA
FF
FF
06
F7
03
F8
F8
FA
01
FB
F4
03
00
0B
06
03
02
0F
10
03
FD
0B
10
FE
00
10
06
06
FE
00
08
FF
FD
FC
03
04
01
01
04
FC
04
05
03
02
01
FC
FF
FB
FF
F8
F4
04
FF
F2
F9
FE
FF
FC
FE
03
FC
04
05
01
03
05
05
FB
04
FD
09
FA
03
F7
09
FC
FE
02
18
01
00
06
0E
FB
FD
10
0A
03
FC
03
10
08
00
FF
04
01
FC
0B
FE
F4
01
0A
F5
F2
FE
FF
02
FE
04
F9
03
00
FD
EE
FA
F5
FC
F0
E9
F8
FE
F0
E6
02
00
FC
F1
05
FD
07
FD
06
FF
03
0B
00
01
FE
0C
07
05
FD
01
04
FD
06
FE
FF
FF
FF
02
04
00
02
04
FF
FD
FF
FC
FC
04
F8
EE
07
04
F5
F5
FC
FC
09
FC
F9
03
03
FE
FE
00
09
03
FC
00
06
02
02
FC
03
01
05
FB
09
0B
0F
02
0E
FC
0B
FE
0C
02
0A
01
0F
01
FC
FF
0B
F5
04
00
01
F3
06
FC
FC
F4
0F
FC
F9
00
08
03
FA
07
03
FD
F7
09
FD
02
F0
FB
03
02
EC
F7
FE
FF
EE
F8
FC
03
F9
ED
FE
FD
FB
F3
0A
FD
FB
FA
02
FE
02
F8
07
01
04
FC
05
FD
02
05
02
03
03
03
FD
04
FE
03
FC
00
F9
FF
03
01
04
F1
06
FE
06
F7
F4
03
F2
03
FA
FF
FD
FA
FA
00
03
F7
F3
FD
01
FA
FB
03
01
F3
06
FE
09
F4
0E
FC
14
E9
12
FC
0E
E4
03
FC
06
E7
08
00
02
EE
07
01
01
F6
0A
FB
04
FB
03
FA
F7
09
F8
03
F0
12
01
FE
F1
14
0C
02
F8
10
06
03
F4
08
07
FE
F2
F2
F7
00
EE
E3
00
03
F6
E9
0F
FE
06
F8
10
FF
FF
07
FE
01
FF
06
FD
00
FC
FE
FF
03
FE
FC
FB
04
07
01
FA
FC
FF
F1
FF
03
FF
F3
FB
FE
EB
F0
FB
02
F5
EB
02
00
F6
F0
04
FF
F4
EB
07
03
00
E2
0B
02
FE
E3
06
03
08
E3
08
FC
02
E5
FF
FC
02
F4
06
02
07
F8
09
03
0E
0A
FF
05
0C
0F
03
FC
0A
1B
00
FE
02
14
FB
FA
F9
17
FD
FB
F1
14
FF
01
ED
0D
08
FC
ED
F3
01
FE
EF
EF
03
FC
EC
EF
06
03
FC
0B
02
01
02
EE
02
FE
FC
01
FA
03
00
02
FE
FD
FB
FF
F9
02
07
0A
FA
03
F9
EF
04
01
F9
F4
03
FF
EE
F3
03
04
F4
ED
05
01
EA
E6
0A
FB
F7
DE
05
F9
01
E3
0A
FF
05
E7
03
FD
04
F1
08
FE
03
F6
06
02
02
00
02
FF
03
08
00
01
0C
0A
FF
04
08
07
F6
FC
07
03
FA
FE
FD
05
F3
FC
FE
06
FA
01
F2
0E
05
FC
F2
0A
06
FE
F8
03
FD
02
F1
F5
02
FC
FB
07
FF
02
FA
0B
09
03
06
E9
06
03
FD
03
FF
FF
FF
F4
03
00
F8
04
F3
01
08
06
FE
00
04
EF
06
FB
05
ED
00
FC
EF
E7
0B
00
FE
E7
05
FB
F2
E2
03
02
00
E9
FA
FE
05
EC
FF
00
FE
FD
05
FD
FE
06
01
04
F6
03
03
03
02
03
FB
03
07
00
F5
00
02
FE
00
FF
03
00
FB
FE
FC
F8
FF
FC
01
F7
F8
02
00
FF
FD
FC
FC
FD
04
00
FC
FD
05
FF
F2
F8
06
FD
EC
03
04
03
F9
10
06
FC
00
F8
11
02
03
03
06
FD
FE
06
FF
FD
FB
FF
F9
04
F4
F6
03
02
04
03
FB
FF
0B
02
08
02
FC
EE
03
01
FB
EC
08
01
02
E4
FF
03
02
E4
08
FB
FF
EE
02
FD
03
04
00
00
FE
0B
FD
FD
F4
07
FE
01
F3
05
F9
FD
FE
08
FA
FD
F7
06
F7
FF
F9
01
02
FE
FB
F2
06
FB
00
F2
FB
FC
FF
EE
FD
FC
03
FC
01
01
03
F4
03
00
FC
FA
06
FE
F5
FA
0E
FD
F7
03
04
04
F3
0D
0C
FF
F0
F7
09
FD
FC
F8
02
04
F2
F6
FB
03
F9
FF
00
FF
F6
FE
FA
00
FB
F5
03
FB
03
00
09
FD
FD
F8
04
02
0B
F2
06
02
08
F0
FF
FE
05
F3
01
FB
01
FD
F8
01
F9
06
04
FA
F4
06
00
04
F8
04
FF
01
F7
07
04
FB
F7
04
FD
00
F7
02
F7
FA
EF
F4
02
00
F1
F4
FA
01
F7
EB
01
FE
04
F0
00
FC
0A
FD
06
FF
FF
FA
00
FD
FA
FF
FC
03
FB
F3
08
FB
02
FF
FC
FE
F4
00
07
FF
F1
FA
05
01
F3
04
FC
FD
F9
F7
F8
01
F9
00
FE
02
EC
EE
F2
03
FA
FD
05
FB
01
ED
15
03
FB
F7
FE
FE
08
FC
FD
FE
0C
F6
FA
FD
01
01
FD
00
01
09
FC
FF
F9
06
F8
04
FA
FF
02
FE
F2
06
FE
00
F3
09
07
01
F4
FE
FB
FE
F3
F6
F8
02
E9
F3
F2
FF
F6
EE
FC
FD
FD
F6
F4
00
05
FC
FA
FD
07
05
03
FE
03
09
FD
00
05
00
F9
02
04
F9
F5
03
04
FD
F7
02
F8
01
FF
02
F8
19
04
01
F7
09
FB
01
F4
F4
F5
00
FA
FB
FA
00
F7
01
F8
00
03
00
04
02
FB
F7
06
FC
02
0C
FB
00
02
FD
FA
FC
04
FE
02
FC
00
03
F6
FE
FD
09
FB
FC
FC
04
FF
FB
FE
04
04
FE
F0
00
07
FE
EA
FC
01
FC
F3
F9
FB
03
F4
F8
F6
FD
F5
FD
F1
FD
FE
F9
FD
FD
FC
00
F5
FC
F7
FD
FD
03
07
09
FE
FC
08
02
FE
02
0D
06
F3
FB
0B
F5
E9
00
0D
EF
F3
04
06
ED
F7
FF
F4
04
01
00
E4
FD
FA
01
F1
F1
03
02
FD
FB
FC
04
FB
F9
F7
02
F8
FA
07
03
05
03
F2
00
FE
08
FE
00
05
FB
FA
FB
04
FD
00
FE
FE
03
01
FF
FF
09
01
FD
FF
FF
FB
00
05
FE
FD
01
FE
F9
FE
03
F2
FF
03
00
FA
02
00
FB
F3
06
F5
00
FB
01
FA
FF
05
FF
F7
FB
03
FA
01
FC
02
FC
01
FD
0A
05
02
03
04
FF
FB
FC
0E
03
EF
FE
13
F2
F9
FF
11
E3
F1
01
F4
E8
F6
FC
01
F7
04
F9
FD
04
FF
00
04
02
07
00
FE
01
F8
FC
FB
00
F4
FC
F3
F8
FE
04
03
05
F2
04
07
FF
F2
01
01
F7
FF
FD
06
02
02
FB
04
06
FA
02
03
FD
FB
03
04
F3
F9
FF
06
FB
FB
01
02
FB
FB
00
01
FD
05
FD
FB
0B
07
FA
FD
04
F9
FD
01
03
F7
FC
09
02
F4
FF
03
F7
FF
FB
0A
02
F7
FF
05
FF
FA
04
04
02
EF
FE
0B
F7
E7
03
0C
E4
F6
03
FE
E5
FA
00
F4
EE
01
01
09
04
06
FB
09
0D
07
03
04
08
05
00
FD
FB
03
FE
FE
FD
03
FD
ED
F7
F6
01
0A
11
EC
FE
08
02
EE
00
0A
FE
FC
FE
09
06
00
01
01
00
01
FB
05
04
FA
FC
03
F8
F6
FF
07
FF
F7
FE
08
F6
FF
01
08
05
0A
FF
03
0C
09
FC
FF
02
FA
FC
FE
06
01
01
03
FD
F3
FF
01
F6
FC
05
00
FF
F6
FE
0D
05
F2
00
07
FB
F6
FD
02
EC
F0
01
06
E7
F8
FC
FD
DC
05
FF
F6
ED
0B
02
14
FF
0D
01
11
04
0D
01
0B
0C
F9
FE
01
FF
01
02
F9
F9
05
FE
FD
FA
02
FF
03
0A
F4
FC
08
01
F7
FE
07
03
FB
00
09
08
FD
02
07
0D
FA
FD
06
08
FC
FC
04
06
FC
FC
05
0C
FB
FB
0C
0D
0D
00
04
05
0B
FE
00
04
06
04
F9
06
FC
01
03
FC
FF
02
04
FC
F5
01
07
F8
FC
04
FE
FB
FB
03
FE
FC
F3
FA
06
F9
02
FB
FE
FC
00
01
04
F7
01
02
00
ED
07
F9
FB
F4
0E
FD
19
04
0A
03
11
13
0B
01
0E
05
00
FD
FC
FE
FB
FC
FC
FC
0A
02
04
F4
0B
04
08
05
02
FC
06
01
FD
04
F7
06
F8
FC
FC
08
FB
FE
FE
0C
01
FC
03
12
FE
FE
07
0E
F8
01
FF
12
FF
FF
04
05
09
02
02
0A
10
FC
FB
06
03
FD
FB
06
F8
00
07
08
FA
FD
06
FA
00
FB
01
F8
F9
FD
FF
F4
FF
FC
FF
F6
FF
02
00
FC
0B
FB
00
F6
05
03
FE
FF
04
FC
F0
F3
00
FF
F3
F7
06
01
13
0E
04
FF
03
17
13
00
0D
10
00
FD
0B
05
02
FE
F9
FF
05
FF
01
F9
FE
FF
09
08
03
FE
00
FD
05
03
F1
F8
FE
FB
02
12
FF
FD
08
14
FF
03
07
13
FD
03
FF
0B
FE
00
FF
0A
F7
FC
07
08
06
FE
07
09
08
FB
05
FD
FB
00
01
08
FF
FF
07
04
F7
FD
03
FB
F6
FE
02
00
FC
FF
05
F8
FD
FF
FF
FE
06
FA
FF
FA
04
00
FC
02
01
FF
FD
0B
08
04
FA
05
07
FD
FD
FD
07
04
0E
13
03
01
06
16
FF
FF
0B
0D
FF
FC
FB
FC
02
FE
FB
FF
06
05
F6
FB
FB
02
FF
FC
05
00
F7
FA
05
03
F9
FD
FE
FC
FA
04
F6
FF
01
04
FD
FD
F9
05
F5
FC
FC
FB
F6
FC
02
0A
F4
FC
03
FF
00
FD
07
00
01
01
01
01
F3
FB
01
06
F4
00
08
05
F7
FE
FF
FF
FD
FE
00
01
03
00
01
05
00
FB
FA
0C
03
FD
F4
FD
0E
FB
FE
00
06
01
FB
0C
05
02
03
12
FE
02
00
0A
00
FD
03
06
17
02
15
1B
FF
04
FE
03
02
01
04
01
01
FF
06
FB
06
04
04
FE
09
FD
04
FD
10
00
FA
FE
07
FE
F4
FC
03
01
EB
FA
FE
FB
F7
F6
FD
01
F9
FC
FC
01
FD
F4
FB
FF
FE
F8
EE
01
03
FB
FD
FD
01
F4
02
FC
FD
F8
F3
01
00
00
FF
FF
FE
02
01
FD
FF
FD
07
01
04
04
06
02
02
01
FF
01
F9
03
05
01
F7
FD
09
FE
FC
06
0F
03
F8
13
12
04
05
19
04
03
08
1E
0A
04
02
0C
06
04
08
0A
FD
03
FE
05
FF
01
FF
FF
0A
04
FF
FE
04
FF
07
00
07
FC
0C
03
10
03
F8
0E
00
FC
FA
06
09
FB
F4
FE
01
02
F6
F9
FC
02
F9
F5
FB
FF
FF
F8
F2
03
F7
F4
F4
00
FF
F0
F4
FB
00
F3
04
FF
FC
F8
FF
FC
01
F7
07
FF
00
F8
09
00
FB
FB
0C
FC
00
04
0C
FE
FE
04
04
FD
FD
01
03
00
F4
FA
0B
FF
FA
FF
14
FC
05
06
15
FF
0A
16
0C
00
06
17
07
FD
FA
0F
09
02
F6
F9
03
00
01
FD
FA
FB
00
00
00
00
FD
FE
07
03
0D
02
0D
04
03
10
0E
02
FC
12
04
FE
F9
03
06
02
F4
F8
0B
FB
F4
F9
01
02
F9
FB
FF
02
FF
F1
FC
03
07
EE
02
FB
05
EF
04
03
07
F5
09
FE
01
FC
02
01
FA
F8
0B
FE
02
F4
02
FF
01
02
09
00
FE
FF
04
FE
FA
01
FF
04
F5
FD
05
FF
FB
FC
0B
FE
02
FB
11
FD
0A
FF
12
FD
03
11
12
FF
08
0E
07
04
06
09
08
04
F1
EE
FD
FE
02
FC
02
05
FD
FD
01
FB
FF
FD
0C
02
02
FC
1E
FF
01
15
11
FD
F6
01
03
03
F5
F8
FB
01
EE
FC
05
FE
FD
FB
11
FD
01
FE
10
00
F8
F3
07
FF
FE
F4
05
01
00
F0
06
00
FA
F2
0F
FF
FB
F5
07
01
FF
F9
0F
00
02
F8
0F
FE
FD
06
07
FF
FF
FE
0C
01
FB
F8
05
02
F7
FF
0C
FE
FA
F7
0A
FC
0B
00
13
FD
13
0E
0C
05
06
11
0A
03
0B
12
0D
03
FD
08
06
FE
F5
F3
FF
03
04
03
01
FC
01
01
FC
FE
04
03
FB
FF
F6
FD
12
FC
FF
05
00
FF
FE
FD
FD
FC
FB
F3
03
03
F6
F9
07
04
FF
01
0B
00
06
06
0F
FF
03
FE
02
03
00
F8
0E
FC
FC
F8
0D
FE
FD
F6
0E
FD
FB
FA
0E
00
00
FD
0E
00
FD
01
0B
03
FF
04
08
FC
FC
FA
08
02
F7
F3
06
01
FB
F1
FD
FE
04
FB
FD
01
01
00
FE
03
08
05
F9
FC
06
0B
09
00
01
04
03
01
05
02
FA
FE
00
05
FC
FD
FF
FD
02
03
02
00
04
03
01
FD
05
02
02
00
F4
04
FE
F7
F7
02
F8
F4
FC
02
04
F7
0F
FE
02
01
10
FF
06
03
08
FD
07
08
09
02
05
FA
14
00
FF
FC
08
FF
03
01
10
FD
F8
FF
12
FD
02
0B
08
03
00
0C
08
04
F9
0A
0D
05
FA
0F
0D
FD
F7
11
07
FB
FE
00
0B
01
FF
0F
02
02
0C
14
03
00
FD
08
FF
FE
F7
FB
05
FD
FE
02
10
01
FB
FA
F6
01
01
01
FF
FE
06
04
FC
FC
00
FE
01
FD
02
01
FF
FE
FC
FF
02
02
04
FD
FC
FE
07
05
FF
04
0A
0A
FD
FC
15
0B
FA
04
0B
12
03
FB
0F
0E
02
00
06
0B
04
FF
05
04
0C
FC
01
FB
06
FC
04
0F
07
00
08
13
00
FB
03
14
EE
03
01
17
EF
FF
F5
0E
FA
02
00
13
09
FD
05
16
0A
02
FF
12
F5
FD
FF
0F
F4
FB
05
14
FD
03
01
05
FF
04
FE
01
04
02
0C
0C
FD
FF
09
FF
00
03
FB
FC
FF
02
FD
03
FE
02
FD
02
03
04
FE
FE
01
04
02
FE
01
FC
FC
FD
FC
FF
FF
FB
03
FC
F9
F9
FF
04
FA
FF
FF
FD
FE
05
02
04
08
08
00
00
05
FE
EE
04
0B
08
F8
FF
0C
09
FA
03
0F
0F
00
00
0A
0F
FC
FF
02
02
EF
02
07
0C
F4
03
FD
0D
F8
03
01
FF
F0
FE
00
07
F4
00
FF
09
EF
FC
08
03
F8
FD
02
06
F3
02
03
02
FD
FE
FF
F6
F9
FF
F4
00
03
02
FC
FD
04
04
FC
02
03
FF
02
FD
FD
FD
01
FC
04
02
FE
FC
01
04
FD
00
FD
03
01
00
03
FC
02
FD
01
00
FF
03
FF
00
04
FE
00
FE
04
00
01
FE
00
02
FC
04
FF
01
FF
04
FE
03
FE
02
04
03
F9
FC
02
05
F8
FF
FE
FF
09
06
00
01
03
02
05
FE
00
00
FC
FC
01
FE
01
03
FE
FD
04
FD
FC
FD
01
FF
FE
FF
01
FF
FF
01
FC
02
FE
01
FF
FB
FD
01
FC
FC
FF
00
00
01
FC
00
03
04
FC
FE
FF
01
FF
00
FF
FC
FF
FD
FD
FE
02
FF
03
02
00
02
FF
FC
02
04
02
04
04
FC
FF
FE
FF
FB
FC
03
FA
FD
FA
FF
FC
FC
FE
FA
FA
FF
F6
FF
FD
FB
F9
00
01
FC
FA
FF
06
FD
FB
FE
07
FE
FC
FF
08
FD
F8
03
04
FC
F8
02
F9
05
F4
FF
00
FE
FB
10
01
03
FD
06
FD
FF
F7
FE
F6
FB
F1
F9
FA
FA
FA
00
F4
FE
FB
FB
FE
FB
FD
FE
04
F9
FE
FF
04
02
FE
01
01
FE
00
FD
FC
01
FD
00
02
03
FE
FD
FF
01
00
FE
02
FD
FC
03
FB
FE
FF
03
02
00
FB
FD
01
01
00
FD
F8
FB
F4
00
F7
F7
F8
02
F4
FC
F8
01
00
FA
F9
06
0A
02
FB
11
0F
F3
00
10
02
EA
01
07
FD
EC
00
0F
03
E3
E9
0D
01
E7
EA
09
01
EB
E8
04
0B
F5
F0
FC
06
F4
F8
F9
05
F0
F2
FA
FD
F2
E6
F2
01
FB
E5
F1
07
FC
E5
F9
02
FA
EF
FD
F9
F7
F4
00
FA
FB
F6
FD
FB
FE
FC
FA
FB
FC
00
04
FD
FD
04
FC
FD
FE
FC
FE
FC
FF
04
FC
F1
00
03
11
00
04
00
01
05
00
01
F4
09
FD
FC
FC
01
FF
F9
FB
F4
03
FC
F9
F7
06
F6
F7
F8
02
F6
0A
00
07
FB
09
FE
FA
05
09
FB
F0
04
04
00
F5
EF
00
0C
F2
EE
FB
0B
EF
F9
F2
03
EB
EA
FB
00
FB
EE
FA
F6
FF
ED
F5
F6
F7
F4
E9
F6
FD
00
E1
07
FB
FE
EA
FE
FA
FA
FC
FD
FF
EC
04
0C
FC
F2
FA
00
FD
04
FE
01
FD
07
FC
FF
00
04
02
00
00
FF
FF
00
FF
FF
FB
F8
03
F9
0D
FC
0E
05
FB
FB
0C
FA
01
FF
FD
F7
02
06
FA
F4
09
0C
FC
F3
05
07
FD
E6
09
04
01
E6
01
15
03
EE
FE
0C
FD
05
06
05
05
03
0B
04
FA
00
07
00
F6
FA
03
FE
F4
04
FA
FA
EB
EE
FC
02
E9
EF
FC
FF
F3
EF
FA
F2
F1
F3
FD
EE
EA
F8
FE
F1
F2
04
F8
FB
F0
01
FE
F8
F7
0D
F5
06
FD
0F
F0
01
FF
08
FA
FF
00
08
02
10
04
F3
F7
02
02
FF
FD
FC
FC
FC
FC
F6
04
FA
0B
0A
02
03
F6
FF
FD
02
04
FA
05
FC
02
FD
00
FD
07
06
F9
F6
03
05
00
FE
F9
05
FD
FB
F6
07
09
FB
08
09
0B
F9
0B
0B
0E
F9
03
02
12
F8
04
00
0F
F6
FC
02
0D
F1
06
03
FF
E8
01
04
F0
EA
F5
00
E8
E3
FD
F9
EF
E0
01
FC
F5
F1
FD
01
EA
F8
04
FD
EF
02
02
F7
EB
04
FE
05
FC
01
FA
0C
01
03
06
11
03
FA
F8
0D
03
FD
F3
01
FC
02
00
FD
01
01
FB
07
0A
05
F7
FE
00
04
F9
03
FA
09
FF
01
F3
03
E9
02
FE
FA
00
FD
F9
F9
FD
FF
FB
FC
FD
00
04
01
02
FB
0F
FB
02
F7
0B
00
FB
FB
10
04
FE
FB
18
FD
03
02
1D
07
0C
09
11
FE
0A
05
0E
F9
0D
03
05
FF
05
F9
F7
F9
F9
F7
E6
F3
F0
EE
E7
F5
F2
F9
DF
0D
00
02
E3
0B
F8
02
E6
03
F7
FC
EB
FD
F2
08
F8
05
14
06
03
03
FE
06
01
FF
02
FD
FC
05
FF
00
FF
FA
F7
08
0C
16
FB
07
04
0D
FB
0E
F3
FD
00
0A
ED
F3
F2
FF
FD
FC
F3
F2
F8
FE
FA
FB
00
FD
04
F7
FE
03
FC
FC
08
04
F7
FF
0D
07
EF
FC
17
08
F9
FC
1B
0E
05
04
12
07
09
06
0E
02
08
0B
06
0A
0A
03
01
0D
F8
F9
F7
06
F8
FD
F1
FB
F3
F2
ED
FB
F3
F1
E2
02
F0
F5
D6
04
F1
F2
DC
01
F7
00
EC
03
03
0B
F7
03
0F
02
FA
0B
01
05
07
FC
0A
F9
06
FA
EF
F7
FD
0F
01
0A
08
12
F6
08
08
05
FB
0C
F5
F7
05
02
EC
FC
F2
FD
FB
FD
F5
F8
FB
FA
F0
FA
08
FF
00
04
FF
05
F4
FA
08
02
03
FB
0D
07
FF
F6
0A
09
FA
FE
08
03
07
0A
0B
04
06
06
FF
06
04
02
03
0B
05
06
04
09
03
FD
05
07
02
06
03
FD
FC
FB
FD
FA
F4
F6
F5
FB
EF
EF
F1
01
F8
EE
DF
05
FE
04
EA
0C
FD
0C
EE
10
FE
08
FF
FC
0E
03
FE
FD
00
FE
FA
0C
FE
F9
FD
17
F7
08
01
01
FD
0A
0B
FF
FC
FC
FB
F7
0A
FA
FA
FB
FE
FF
FF
FB
EC
FB
04
FE
F3
F5
07
F8
F5
F4
06
01
FE
FD
09
02
0A
F5
0B
0B
05
F8
FF
0D
05
01
FD
0A
01
FD
FF
08
03
F7
07
09
0E
02
0B
04
0A
07
0F
0B
0D
02
0B
06
07
02
0D
01
01
09
03
F9
F1
F8
F8
F2
EA
EC
F3
FB
FB
E9
EF
F8
00
F9
E7
07
FB
F9
F6
05
00
F8
FC
F0
03
F7
FE
0B
04
FE
F9
06
00
FB
F4
09
FC
00
FA
02
FF
06
0C
FB
FB
FF
F8
F4
F5
F9
FD
02
01
00
03
0C
FA
F5
03
02
01
F1
08
FE
08
FA
03
01
0A
FA
02
FD
08
F9
F8
0A
06
03
F4
0B
04
FC
05
0E
04
02
0B
0B
08
FA
04
09
07
FB
09
0A
15
01
12
FD
0F
02
0B
04
10
05
04
00
FD
FC
08
01
E7
F8
02
F9
F1
EF
FC
F1
F7
F5
F8
EB
F6
FA
E7
F9
EC
F2
F6
04
F0
F1
FD
FB
FB
F7
FF
07
07
FD
FE
0C
FB
F2
F3
0D
FA
F4
F7
0B
FD
FF
04
05
F4
01
FE
F5
F9
FA
00
F9
FA
06
04
05
03
F9
05
00
08
FF
00
00
04
FB
01
00
05
00
FA
F9
08
FE
F9
08
0A
FC
F9
07
02
F6
FE
05
FC
05
FD
FE
05
03
08
06
0A
FE
08
04
11
FE
12
01
1C
02
0B
00
15
03
05
FE
07
FD
0C
FA
F0
04
04
EE
ED
FC
04
F0
F5
F7
01
F5
EF
FD
EC
F7
EB
00
FD
04
F4
F3
03
FE
F8
F1
FF
FC
04
FF
FA
07
00
FD
F5
07
02
F5
F6
0D
01
FC
06
03
FB
01
14
F8
03
F7
03
FA
01
00
06
FE
FD
FE
FA
FF
08
F4
F9
06
02
FD
F4
00
01
FB
F3
FC
FD
F9
F2
07
FD
FA
F0
02
FD
08
FC
F6
02
08
07
F4
04
FB
02
FF
11
F2
07
01
16
FA
0A
02
1B
01
06
FF
15
08
07
F9
FF
08
00
F3
E3
12
04
EE
E3
04
05
F3
E7
04
08
F4
F4
FC
E8
F8
FA
F3
F2
0C
FC
E8
FF
10
FA
F9
05
03
FF
02
02
FB
05
FE
F7
06
FB
F0
F2
0C
02
01
08
FF
00
02
14
F6
FE
FD
01
F7
F7
FD
00
F5
F1
00
02
07
02
06
F8
08
FF
03
F8
FA
00
02
F2
03
FD
F8
F1
FF
01
02
F0
F9
FB
0E
FE
F1
02
07
02
F7
0A
01
FF
FA
0B
00
09
04
12
FB
0A
FD
1B
02
02
02
0A
0D
07
F8
E7
07
FD
F2
D5
09
FE
F1
DD
0A
FE
EE
E6
02
FB
F7
EC
F5
E7
03
EA
FC
EE
09
00
FD
F8
0B
01
07
FF
05
03
09
F4
0A
F9
FA
04
FE
F2
F5
F0
05
03
04
09
FD
06
02
0B
F2
FC
03
F7
F7
ED
0B
00
FB
F7
0B
FD
05
FF
07
F8
FC
F3
08
F9
F9
F7
FC
F4
FD
F2
07
F6
00
F9
06
F5
FA
00
08
FB
F5
02
05
FB
F9
04
01
02
FA
05
02
03
04
17
03
FD
09
0C
00
02
08
04
02
FD
FC
E3
0D
FD
F1
CF
03
FB
F4
E4
FE
FF
F7
E5
FA
F5
02
EA
02
F4
06
FA
15
F2
0D
04
FC
F3
0A
12
FA
F6
02
0A
06
F9
0A
FF
02
05
FF
FF
FC
F3
F5
FF
0E
FE
FC
04
00
0D
FE
FB
00
FD
FC
EE
03
02
02
F4
00
F7
FA
F0
08
FA
FE
F6
06
F5
F9
FE
FB
F6
FF
FC
02
F9
05
FA
03
F8
F5
FD
07
FB
EB
02
01
F7
F4
FD
FC
FB
00
05
03
FE
01
12
04
01
0B
01
01
02
03
E8
0A
FE
F2
DA
03
01
F3
DE
FE
F9
F3
E8
FF
04
FE
F1
FF
FD
01
EF
0E
FB
04
F8
08
EF
05
07
09
EF
0B
FF
07
F3
0B
10
FE
07
04
09
FD
05
F7
09
0A
01
F0
05
10
FE
F3
F5
06
11
02
FA
FE
03
06
EF
FC
00
04
EF
FF
F4
FA
EC
02
FB
FD
00
00
F7
FB
0B
FE
00
05
08
03
FE
01
03
05
00
FA
01
FF
FD
EA
FD
FD
F0
F6
FC
FB
FA
FF
FB
02
F7
03
01
FF
FF
0F
F2
05
FE
FF
E1
06
FD
F6
DB
0D
FB
F8
E6
05
F8
FE
F4
01
03
FC
F4
00
FD
FE
FF
FD
F4
F5
01
09
EC
FE
02
05
EC
14
09
F9
F9
11
0E
FE
FE
03
01
06
06
FC
01
0E
04
F7
02
09
04
F3
F8
04
09
FC
F5
FA
08
0E
F5
FA
F8
04
EB
02
FE
01
F5
06
FC
01
03
02
F3
04
04
02
F7
07
07
FD
04
FC
F9
FD
04
F7
04
F5
FE
F7
FB
F1
F0
FD
FB
02
FB
01
F6
09
FB
09
F0
04
FC
0B
EA
FF
F9
FF
EA
07
02
FC
EB
02
FA
FE
F0
09
F9
FC
FA
FD
F9
FD
FA
F8
FA
FA
FB
E9
F4
FC
F8
E8
F0
09
13
EA
F3
17
03
01
02
11
0D
FC
03
09
0E
05
06
00
F7
01
03
FD
FF
13
09
EA
00
FD
00
FD
FD
FD
0B
07
F1
07
01
05
F6
0A
FA
08
F9
08
FA
FF
03
05
FD
FC
0C
0C
03
F7
03
06
0F
FC
01
F9
09
FD
FC
F7
FB
FA
FA
F9
F2
06
F4
07
F6
05
F4
03
F3
05
F5
FB
FB
04
F0
FD
FE
04
EE
06
06
00
F1
FD
FB
00
F6
02
01
02
FF
FA
02
02
03
F3
EE
FB
01
F3
EC
FC
F9
EB
F0
FE
09
E9
FC
1A
0D
F9
F5
07
12
05
03
03
01
FF
00
04
F7
01
06
06
FC
10
06
F3
FE
08
05
00
F7
06
00
04
F4
05
F8
02
F4
FE
FC
05
FD
08
F6
02
03
04
FC
FE
0A
0A
07
F8
01
FB
FF
FA
FD
F9
09
05
FD
03
FA
FE
00
06
F7
FF
FB
05
F6
03
F2
04
FA
FA
F6
FF
FB
FE
F6
06
08
FE
F9
04
08
02
04
01
04
03
00
01
00
00
F9
02
02
FD
07
07
F8
FC
03
FB
F7
03
F6
F3
EE
02
00
08
FC
07
11
F7
FA
FE
0A
FF
04
FC
01
01
06
01
FF
0F
FF
FE
F6
1A
00
FA
F5
10
FE
00
F3
04
FE
F9
F0
F9
F1
F3
F9
FF
F8
FA
0F
04
01
04
0D
01
FB
01
0A
FB
03
FD
08
FD
F9
04
00
FF
F4
07
04
01
F8
02
FA
01
F8
FD
F8
02
FA
F3
00
FE
00
F2
05
FF
02
F8
04
02
09
F4
FE
07
05
FF
01
FD
04
01
0B
02
04
F4
05
01
01
FA
06
0A
FF
F9
06
01
FF
06
0A
FD
09
06
08
06
FC
FC
0F
08
01
00
05
06
FE
04
06
04
FD
FB
04
09
04
FA
F9
20
04
F5
F0
10
0E
01
F1
02
FC
F7
ED
02
03
EF
FC
00
07
F8
03
03
F6
06
07
05
F4
0D
0F
F7
FC
08
0A
F9
FB
01
FE
00
F8
02
FF
00
FB
FE
FE
FB
02
F5
02
F9
03
EE
FC
FD
02
F7
FF
FE
04
F0
00
FB
02
EE
07
06
03
F9
06
02
FE
F9
03
01
FF
FE
07
0D
01
F7
0E
13
02
FB
0E
F2
F7
06
FC
F7
F9
08
07
FC
F7
F5
01
FF
03
FD
FD
00
03
FF
06
06
FD
FB
06
10
FC
F7
04
18
09
FA
F6
FC
09
F6
F1
FF
F6
F3
F9
04
FE
F9
02
00
00
04
08
03
F8
0D
09
09
F1
07
08
06
F9
09
05
06
FF
FF
FD
08
02
03
FD
02
FF
F3
00
FF
05
F5
FE
FE
02
F8
FF
F8
03
FE
F6
00
FD
F2
F7
FF
03
EC
06
04
F8
ED
FF
06
FA
EE
0C
0C
FD
FE
15
14
FE
F7
17
0D
02
06
08
FB
F8
09
FE
F4
00
11
FF
F5
00
00
FB
02
04
02
03
02
05
03
00
02
03
FE
01
08
0A
F5
F6
11
0E
F9
F2
FB
06
FD
E7
00
FD
FD
F6
F7
F8
08
F4
FC
04
06
FC
0F
05
07
06
11
F1
FF
09
11
F8
06
01
10
07
02
01
0C
03
FA
07
09
07
FE
05
01
05
FB
F9
FD
06
F3
00
F7
02
FB
00
FF
02
FB
FE
FF
09
F3
02
03
FE
F5
06
05
FF
F4
12
07
02
FF
15
0E
08
02
17
0D
FF
09
12
F5
06
15
07
F4
04
0F
06
FE
FE
04
FF
03
FC
04
FF
02
02
03
01
FD
FE
00
01
F7
05
FE
FB
02
0A
FC
F5
F3
0C
04
F9
F4
0E
11
F1
F7
06
01
E8
F7
0C
FE
EB
02
08
04
FA
0D
02
FB
F2
05
04
F5
FA
01
00
F5
FB
FF
03
F6
FC
FC
0A
FD
01
F9
04
F8
01
FA
0A
F7
0A
EC
0A
FE
02
EB
07
FD
FE
FB
FD
F3
FD
FF
02
F5
0D
03
06
00
0A
01
FF
01
11
07
04
06
0F
0D
13
03
0F
FD
F7
09
07
02
F9
07
0A
06
FC
05
08
FF
FD
03
02
01
00
01
00
FE
05
FD
00
01
07
FB
06
F8
F9
08
02
F1
00
0B
F6
FB
18
06
EE
02
0A
01
E3
F5
11
05
F5
ED
06
FD
01
F6
09
F8
EE
F8
14
F2
E7
02
0A
02
ED
FF
04
FC
F4
FA
06
FC
F8
F7
07
00
0B
F0
08
01
03
E7
04
05
04
EF
FE
04
05
FF
04
06
FA
00
12
09
FC
08
15
11
09
02
0B
10
FE
FE
01
03
FC
01
04
FE
FC
FB
FF
FD
FC
FF
FD
0C
07
06
F8
05
0A
FE
02
02
02
05
00
03
02
03
01
04
FE
FC
FD
FE
02
FE
06
03
04
0E
03
01
0C
19
16
F3
08
18
19
F9
01
00
10
07
0D
FA
06
0A
07
FE
0D
0D
10
00
1E
01
16
08
19
F9
0C
05
0B
08
09
02
0C
16
09
06
19
10
1B
FB
08
03
08
FE
0D
0C
0C
F8
19
FB
0B
FD
1B
03
07
FE
16
12
08
08
1A
15
07
03
10
0E
07
F5
0F
10
FD
03
0C
00
09
03
08
06
FD
FB
FB
0B
FE
FF
FE
01
03
03
FF
01
FC
01
01
04
03
01
FF
01
FF
FD
FD
FF
00
02
01
01
FF
F9
FA
06
FA
F4
F7
0D
F8
01
FD
09
FC
07
FC
02
F9
06
04
08
F7
FF
F6
09
02
F9
F9
15
0B
08
06
11
0B
05
04
0A
04
F3
FA
0F
06
03
05
12
1D
FF
09
00
10
FB
03
02
0B
F8
03
10
0D
FE
03
1C
17
02
08
0C
05
06
06
0D
00
F7
08
11
08
F9
FB
0D
03
F6
F2
07
FE
01
04
03
FF
FE
FE
00
00
02
FE
FE
02
00
02
03
FD
01
04
04
FC
FD
FF
FD
FC
02
FD
FC
FC
FE
00
03
01
00
FE
03
03
FD
FF
03
04
02
FF
04
04
00
FD
FE
FE
00
01
05
FC
04
03
FC
FF
04
00
FD
00
F9
FE
04
02
F4
00
FE
08
06
FF
FF
03
02
FE
FE
02
FC
FF
02
02
FE
FF
04
02
03
FC
03
02
01
03
00
FC
FF
00
00
01
FC
01
FC
03
00
00
FF
FE
02
04
04
02
00
FC
FC
00
01
FD
FD
02
03
03
00
03
02
FE
FE
FF
FF
04
00
FF
FE
03
FF
00
FD
00
01
04
00
04
FE
02
03
FF
FD
00
FD
02
FF
04
F1
02
04
0A
F9
00
06
0F
F8
03
04
04
FB
00
02
04
F7
FF
01
04
F3
04
FD
07
F6
05
00
0D
F5
01
01
06
FB
01
0C
F8
F9
03
04
01
F2
04
F8
09
F5
FE
FE
09
EE
FC
09
10
FA
FD
0F
0F
F5
FD
0E
0D
F6
FC
05
0E
F6
02
07
08
FD
04
03
07
FD
03
FF
02
FD
03
04
FD
FD
01
04
FE
00
FC
01
03
FE
FE
01
FE
FE
FF
03
04
F8
01
FF
0D
F5
FD
07
01
F6
FF
0C
FF
00
01
FF
0C
F2
07
F7
09
F6
08
F8
0C
F8
03
F7
18
F2
0A
EC
1B
F4
0C
F6
19
F3
0D
FD
13
E9
06
F3
12
E8
0D
02
06
EE
08
F9
0E
EC
12
04
04
F8
11
02
07
04
16
FB
05
FA
0E
05
05
EE
05
11
10
F4
0A
0C
11
F3
01
14
18
F8
02
17
15
F0
06
16
14
F9
01
07
0C
FB
03
03
00
FF
00
01
01
01
FC
FD
00
04
04
02
FF
01
00
04
FD
F4
FB
F2
F7
F9
04
02
01
F2
FD
08
FA
F8
00
0D
0D
EC
FF
04
14
E9
07
00
0C
E4
0F
EC
0B
E7
12
E5
16
E7
0D
E9
0C
EA
FD
E9
0D
E5
10
E8
04
D8
0A
EF
02
E5
F5
F4
FF
EE
F8
FF
F9
F4
FE
00
FA
FF
00
04
FA
04
02
09
F7
04
F8
07
FF
00
F1
07
FA
07
F1
0E
FF
03
01
06
00
FE
FD
06
0E
FB
FF
04
09
F8
0F
07
09
02
02
08
0A
00
04
01
03
FD
FF
00
00
FE
03
FD
FB
F9
FB
F7
F4
05
F5
FB
E9
FF
00
02
0B
F3
06
08
14
F0
0A
FC
0E
F0
04
F5
02
EA
0D
E6
0D
DE
0E
E4
11
E6
0E
E2
0D
F4
06
E4
08
DF
04
E6
FF
E0
FA
F4
FB
E2
00
FB
F6
F7
FF
F8
F0
F4
0B
F7
FC
F9
09
FA
02
FB
02
F9
FA
FA
0B
07
F9
00
00
02
F6
09
FA
02
F8
14
FA
04
FA
0F
FD
19
FF
08
00
11
F9
05
04
00
FB
08
11
08
F7
F8
00
0C
FE
00
03
FD
04
FF
FE
03
01
F4
03
05
08
02
05
0A
F7
F5
07
FD
08
FA
FD
03
00
FA
01
F7
FB
02
02
ED
00
F5
FC
E5
0A
F0
03
DE
06
EF
09
E0
08
F0
FE
E2
FF
F4
00
E3
F9
F0
FC
F6
F6
F6
F9
F2
F7
F4
FD
F4
FC
F8
02
F5
FF
F8
FC
FB
FC
EC
00
FD
03
F8
07
FF
00
F9
0B
0A
FA
FB
0B
00
FC
FB
05
FE
FE
F8
FD
0D
05
00
04
11
03
09
0A
FB
05
FA
08
1D
00
06
03
10
00
FC
00
FD
03
FF
01
FA
FC
10
F7
F7
F9
14
FC
00
0C
01
03
08
06
08
F9
00
FE
03
FD
FA
01
01
FB
F3
05
07
F9
F2
03
0D
F9
DF
04
0B
FB
DD
FF
FF
F8
ED
FA
00
FD
F5
ED
FD
FA
F8
ED
FA
FD
FE
F2
00
FA
FC
FF
F8
F7
FC
F7
F3
F8
FA
F9
F8
00
0C
F2
FD
08
0B
F8
08
FD
12
EF
0E
FF
06
F6
0C
06
0A
F3
03
09
0E
F9
00
02
17
FC
FB
07
07
0B
04
09
10
F8
02
04
03
FB
06
FE
FE
FE
FC
0B
F0
FB
12
F7
FA
FF
17
F7
01
FF
0A
00
03
05
06
F3
F1
04
06
EE
F1
00
05
FE
01
04
05
02
FB
06
09
F3
F0
FE
08
FB
ED
F9
01
F7
F2
FD
04
FF
05
EE
07
FD
0E
FB
00
01
13
FF
02
FC
09
FD
02
02
08
F2
03
FE
07
F5
01
FD
07
F2
FC
FE
0A
F6
07
FB
09
F5
04
FE
09
F4
FF
0C
0D
F1
08
01
0C
EB
0A
FC
0C
03
01
FF
05
15
06
06
13
02
07
0B
05
FB
FC
FF
00
08
0A
02
F5
05
11
F8
F4
04
11
09
FE
00
04
09
01
FE
FC
F4
F2
05
06
F5
EE
08
06
FA
F8
0B
08
F3
F1
04
06
F1
E4
FE
0E
F8
E0
05
0A
FC
F7
FC
04
FE
0B
F3
02
FE
0F
FF
01
02
11
04
04
05
0C
FA
05
09
09
F3
07
04
02
FB
FE
06
FF
01
FC
0D
FF
FA
02
04
01
FE
FD
00
00
F2
07
05
03
F1
FE
09
09
F6
09
00
12
F8
0A
F8
11
FF
FC
14
05
00
02
0C
FF
FB
0E
FA
F7
02
0D
FF
00
FA
06
09
F7
FA
03
0D
F4
07
08
05
FF
F8
FE
F8
F6
09
0C
F3
F0
07
01
00
F3
04
01
02
E2
00
03
FF
DB
F8
06
06
E1
F8
0E
FE
F9
F5
11
FB
09
F1
0B
F7
0B
FC
05
02
0A
01
07
04
0A
FB
10
05
03
F7
09
07
FC
FA
03
08
FD
F8
FF
09
F4
03
FD
01
E6
FF
03
FD
F5
FE
FC
0A
F7
00
FB
08
00
FA
FF
FF
12
08
04
08
13
03
FC
06
FC
00
07
F9
03
F7
0F
FF
F8
01
08
07
08
FA
08
04
FA
F6
06
0B
FB
FD
06
05
05
02
04
FD
FA
0C
07
F8
F3
05
00
01
ED
07
FE
06
DE
F8
0C
01
DD
EF
0B
07
ED
EF
08
06
00
EC
0B
FA
10
F1
03
F4
0C
FF
03
F3
04
FE
0B
F8
07
F6
0C
FA
08
FC
FB
01
F5
02
04
03
E8
FD
04
01
E8
FB
02
08
DA
F9
FD
02
E3
FC
FA
09
E9
FF
F0
0B
F2
FE
EF
0B
00
09
0A
01
11
EE
FD
0A
FE
FA
06
F2
00
F9
0A
F6
F9
01
F9
FD
0B
07
15
FB
FF
F5
06
FB
00
FD
FA
14
08
06
0F
08
0A
08
0B
00
FA
09
0C
03
E6
05
0E
FC
D7
FC
0D
FE
DB
F8
01
FB
F3
F4
0B
F7
FD
F8
06
EF
00
FA
02
EC
06
FA
FE
F3
05
FE
03
F1
05
FA
03
F8
04
FF
FC
F7
F6
F4
FE
F7
EF
FD
FD
01
EA
FC
F9
01
D1
02
F7
03
E4
FE
03
06
E4
00
F4
08
EB
0A
F6
02
F0
0A
FE
04
03
02
04
10
02
F8
04
0B
01
F1
08
FA
04
04
0C
FA
05
01
13
F4
01
FA
02
F8
02
FC
00
FC
11
02
0E
FE
07
02
04
FB
F6
01
0C
0A
E9
04
0A
F9
E0
01
04
FB
EC
FF
03
EC
01
05
FB
F1
0A
05
FA
E8
01
04
FF
EF
09
00
FF
F6
0A
F5
08
EC
04
FA
00
ED
02
FC
FE
FB
F8
F9
01
F4
F3
FD
FB
F9
EC
00
FA
03
E2
02
FF
05
E2
05
FA
03
E0
10
04
02
DD
0F
F8
05
E5
12
05
04
EF
05
16
11
FC
E7
0A
03
06
EF
00
FF
01
01
07
01
00
04
08
FB
FB
FE
F9
FC
06
02
01
EC
08
00
04
F4
01
FF
04
FA
FB
04
04
F5
F4
FB
03
F5
F1
08
01
F4
EF
02
FC
E7
07
0A
F7
F4
0B
0B
F7
FF
0D
0A
08
FF
09
FE
07
FF
0B
F9
07
FA
0A
FE
05
F7
06
04
01
F9
FF
FC
FF
F9
F2
01
F6
FE
F5
0C
0A
FB
FB
05
01
F0
E9
06
F6
F3
E1
09
EB
F5
DE
19
F7
FB
E4
12
07
FD
ED
08
FE
06
F2
FF
F3
07
00
04
F4
03
08
03
04
FA
08
01
06
07
04
F3
03
FE
08
03
00
F3
FF
01
01
F0
04
0A
FB
F7
F5
0F
01
EF
F3
0A
04
F0
EF
08
09
EB
FA
02
04
E8
01
FF
FD
FA
05
0A
03
06
03
08
03
0C
04
08
01
07
0B
07
02
FF
0B
0A
FD
FB
0A
06
00
F0
FA
00
01
F3
F4
03
0B
F1
F9
04
11
ED
07
01
02
F1
01
04
FE
E7
EE
06
F8
E6
E0
0F
03
F7
EA
02
FE
00
F9
11
FE
0D
F7
02
F5
03
FC
04
F6
06
0C
00
08
FC
FE
FF
FF
06
FB
06
07
01
FC
12
00
F4
06
F7
04
F9
0E
04
00
F6
FE
0F
02
F7
04
08
0B
F3
FC
04
04
F1
F4
FB
0C
F8
F7
FD
07
FC
F7
FE
0E
06
FD
09
FF
15
01
10
02
12
0C
06
06
00
07
06
FD
FD
07
09
07
F2
FE
08
04
EE
05
09
04
ED
F9
0B
0E
E5
04
FD
0F
E4
01
FD
10
E4
FA
00
09
E4
FA
00
F7
F5
F5
05
F1
00
F8
14
0B
10
F6
05
F9
06
F7
0E
07
FF
02
FE
F7
05
00
FC
01
09
EF
04
F9
05
06
07
00
F3
1A
FB
09
F5
10
06
0D
F5
00
0A
09
FC
FA
0C
0B
FC
F4
04
0D
0A
EB
FF
0B
02
FD
F6
0D
04
FF
01
19
09
06
01
0D
11
09
0C
FE
0E
10
0D
01
02
0A
0B
FA
04
FF
09
05
F1
F6
0B
02
F6
02
06
07
F6
00
07
0B
ED
02
FF
14
F5
FE
00
14
EA
FD
FD
05
F3
05
04
F9
FA
FE
06
EB
01
F7
1E
FE
07
F2
13
F6
09
F0
0C
FD
FE
FC
02
FE
F9
FD
01
03
01
EA
05
FB
0A
09
02
F0
F8
12
FD
FD
FB
0E
05
04
F9
03
08
10
FE
06
06
0E
FD
F8
08
01
02
F2
F5
09
FE
01
F7
0C
05
F7
FD
0F
07
02
04
0E
0E
07
0E
FF
0E
09
0C
05
01
09
06
FE
05
FC
06
02
FC
FD
05
FF
F8
02
07
FF
FD
06
FE
FF
F8
06
03
0D
F5
F5
FF
0B
EE
FE
03
04
EF
0B
FB
FC
F8
07
FE
F7
00
00
0D
0A
08
0F
FA
F4
0C
FA
04
0C
FE
F9
FC
01
FB
FF
FC
0B
FF
F7
FB
F6
04
F9
04
F3
FE
03
FC
F6
FC
06
00
F3
FC
00
03
FD
00
03
05
FD
00
FD
FB
F9
FA
02
F6
F8
00
FE
F2
FC
F6
04
F9
01
00
02
0E
00
06
09
03
FA
06
12
0A
F5
07
0D
0C
00
03
01
0D
FA
FE
01
0E
F2
FF
01
07
F5
FF
06
00
01
0C
F8
FD
01
F8
F3
FA
03
E8
F1
04
FB
E9
F1
07
E3
F8
F9
10
EB
05
F5
1C
0C
08
14
F1
FC
08
05
01
FF
06
07
FB
09
01
F8
FB
08
FA
FB
FF
EC
FE
EF
FD
F1
08
F8
F5
E7
FB
02
04
E3
07
02
09
EA
03
07
02
F0
FC
FC
00
E4
FE
F8
F9
DF
F9
00
F7
DF
F6
09
FC
E8
F7
05
09
F0
0C
05
04
F7
06
0A
05
F3
0C
04
0D
F8
05
00
0C
F9
FC
00
0E
F9
05
00
09
F8
0C
02
01
FB
0F
F6
F6
FA
FF
F5
FA
FC
EF
F2
06
F0
F5
FF
0E
EF
FC
02
0B
EF
05
00
0A
F8
15
05
13
F8
03
08
FB
00
FC
FD
FE
FA
FA
FC
FE
00
0D
F4
01
EB
08
E2
FB
E9
07
F3
F8
E5
01
02
FF
D9
0F
06
F6
E3
0A
FE
05
DF
03
05
FD
E8
02
02
F9
E5
02
09
FB
E3
FE
09
FF
E6
01
03
FC
F1
08
00
FE
FE
06
0D
00
F6
05
03
09
FA
07
FF
02
F9
0B
05
FC
F5
0D
00
07
F6
0F
02
F6
FD
11
EF
FF
05
0A
F2
02
FE
FF
F0
04
FD
01
F6
08
FE
03
07
10
08
0B
05
FE
F6
14
05
12
00
08
06
FE
FF
02
07
FF
FD
09
F3
04
FC
11
F5
04
E8
15
F3
FD
EF
11
FC
FA
F2
04
02
F9
DF
0A
01
F7
E4
03
03
03
EB
FD
02
04
F4
02
04
FF
F5
03
06
FE
F6
05
08
FD
FE
FC
07
FD
F3
05
04
00
FF
0B
0C
FD
FB
0C
07
F8
00
07
FD
F6
F5
0D
02
02
FE
0D
FC
03
F6
11
EF
FA
F8
15
F5
F7
04
08
F4
FE
01
05
E7
03
04
0A
00
07
13
09
05
00
06
06
00
F5
FD
0C
00
06
01
FC
FC
04
FA
02
05
00
FC
03
00
FF
FE
0A
ED
FF
F5
12
FD
08
FF
17
F8
FC
F5
13
F7
FD
F5
09
FC
F2
F7
01
FC
F6
FB
FD
03
F7
FE
02
00
FF
07
00
02
00
05
08
FA
FB
02
0B
04
EF
FA
0D
03
F6
F8
09
03
F5
FA
08
04
F0
FB
01
FE
F4
F4
07
F7
FC
F6
0E
F1
F6
FA
13
EE
FB
FF
0D
F2
F5
FD
07
EF
FE
06
01
F4
F8
FF
08
09
F9
13
06
09
F4
0B
07
F9
F0
0A
FB
03
F6
FD
00
04
02
01
FB
FF
01
02
03
FC
05
FB
00
F4
FB
FA
12
F0
04
07
0E
FC
F5
05
06
06
F2
00
00
01
F2
05
FD
F7
EF
00
01
FF
F9
F6
FE
FB
F8
0A
FC
F9
EE
0D
FF
EF
F4
04
0A
F5
F3
FA
0C
F8
F0
FF
0E
F7
F5
F6
09
F4
F0
FD
0A
EC
F5
FA
0C
F0
F9
F6
09
EE
F9
FC
0E
F2
FB
01
08
FA
F1
00
04
F5
00
04
06
F3
03
04
0B
01
F0
0B
FE
F0
ED
08
06
F6
F2
00
07
05
FA
00
04
FE
FE
FC
FC
01
FD
FD
FF
FC
FC
03
06
F6
00
01
FF
F9
F7
0C
FB
FC
EE
16
FC
01
F0
09
FA
F5
ED
08
FA
F9
ED
04
FE
FC
ED
FB
0A
03
EE
FD
FD
FD
EE
07
05
F2
F0
00
05
FA
F5
F9
00
FC
F2
02
02
FB
F8
FB
01
F6
FB
01
03
F0
F8
FA
04
EF
F5
F2
0D
E9
F7
F8
0A
EB
F8
01
02
07
EB
0F
01
FC
F2
0A
FF
F8
FA
14
FD
08
EB
FC
08
0C
FD
FB
00
00
06
F7
06
05
08
03
03
FD
FC
04
FE
00
FF
FE
FF
00
01
FF
06
03
FD
08
F6
04
FC
0B
E6
04
FE
0B
E9
FC
F2
00
04
F1
F5
07
02
F6
F4
07
0C
F9
F4
06
06
FA
F9
04
01
F4
FB
0F
01
FA
FC
FC
08
07
FA
00
00
0B
F3
FD
F7
0D
F8
04
F1
02
FD
07
F6
06
FC
03
0B
0C
F5
03
02
F7
F7
0B
09
01
ED
09
FC
0C
F1
0E
F1
06
F4
0A
F1
07
EF
0E
F7
04
F0
FF
FA
00
EF
00
F8
03
FF
FE
04
FF
07
02
FF
FE
FE
FF
03
FF
01
FE
04
03
FF
03
00
FF
FE
05
FB
04
FF
F5
F2
13
F4
F9
EA
08
F9
00
E9
FF
FD
0C
EE
0B
F6
06
F7
01
F4
10
F6
03
F9
0C
01
00
F6
08
07
02
F8
08
FB
00
FA
16
F5
03
F2
15
E1
0B
F2
0B
DF
0C
F9
04
EC
0F
F3
09
04
09
ED
0F
05
0A
EA
0D
FD
09
EA
0A
ED
04
E8
0A
EE
FD
F1
0C
F7
FD
EE
03
03
F7
04
05
FD
02
00
0D
FD
01
FF
FC
02
04
02
01
02
01
FD
FE
03
00
FF
01
03
FF
02
02
FD
04
00
04
00
FD
02
0B
0D
FC
FC
0E
06
FF
00
03
05
09
F0
01
00
07
F4
03
FF
00
FB
03
FA
0B
FA
0F
FA
0B
F2
0D
F5
0D
F5
FF
F7
0D
FC
07
FF
0E
FE
08
FA
1B
F8
08
FC
07
FD
08
EB
01
FD
14
E5
06
F1
16
EF
04
F3
0E
F0
09
00
07
F7
01
01
10
F5
FE
F7
12
F5
00
FA
0F
FC
FE
F5
FE
FE
02
04
FB
FC
00
04
FE
FE
04
04
03
FC
FF
01
FE
01
FE
04
FD
FD
00
FD
FC
03
00
FE
01
FF
04
02
FC
02
FD
02
FD
05
FC
FC
FF
FD
02
00
04
FE
03
FC
FC
FC
04
04
04
FC
FD
FE
01
00
00
04
0D
01
01
FA
09
FC
00
FC
FE
00
00
05
FD
01
01
04
00
FF
FF
FF
03
01
02
FE
02
FD
FE
FF
04
01
FF
FD
02
00
FD
FE
04
FE
00
04
00
00
FE
FC
02
FD
FF
FD
02
FE
FE
FD
FE
FF
FC
FF
FE
02
04
01
FD
01
01
00
03
02
FE
05
FD
FF
02
FC
02
03
01
04
01
00
FF
02
FF
04
FD
03
03
02
FF
FC
0E
FB
FC
04
0F
FA
FD
FB
0A
F9
02
01
07
F6
04
FB
0C
FC
04
FC
0E
F9
05
FD
12
F5
02
FB
0D
FC
FD
01
00
09
FE
05
14
0A
02
EF
11
03
FF
EF
0E
F7
FE
F6
18
F6
00
F4
14
F2
01
F6
13
F3
FB
F6
0D
F6
FE
FF
05
01
01
FE
08
02
01
00
FE
01
00
04
FE
FC
FF
04
FC
00
FC
03
03
04
FE
FC
02
00
FE
00
FE
03
04
FD
06
FC
03
FC
FE
01
01
F8
05
FE
03
F8
08
00
FF
FE
11
FC
01
FB
17
FE
FF
FB
08
FD
FD
00
FC
03
01
06
05
07
02
F9
14
06
FC
ED
09
F9
FB
FB
07
13
FF
FB
11
08
FB
FE
1C
12
01
ED
18
0E
FD
F6
11
0A
FE
FC
08
04
03
FB
09
0C
03
F7
06
04
FD
F6
FF
FA
03
F6
06
F8
FE
F9
0A
01
FC
F9
01
F8
00
FE
02
00
FE
02
03
FD
01
FF
02
FC
FC
02
FD
04
FF
FC
FE
01
FD
FD
01
11
FE
00
00
14
FF
FD
FE
09
FD
FE
06
06
03
FC
10
03
FF
FD
0E
07
03
F9
06
18
02
00
0A
0D
FF
01
04
12
02
01
07
01
01
FE
0B
07
FD
02
0F
03
01
F2
0F
FD
04
FC
0B
06
03
01
0C
0A
02
F4
14
03
03
FD
0C
04
FC
FD
15
00
01
F6
01
03
03
FD
00
F8
02
04
00
F9
01
0C
02
01
FE
FC
FC
0C
01
01
FD
04
FE
05
FE
01
FE
FC
04
01
00
02
FC
FF
FD
FE
01
01
03
FD
FC
10
FD
FB
FD
17
01
FE
06
0E
04
FB
05
0D
FD
F6
FE
0B
01
00
FE
10
FE
F8
FF
11
FE
F0
FF
12
FD
EB
04
12
FE
EA
FB
0B
01
FC
FD
0D
04
02
08
0A
01
03
0E
07
FF
06
FF
15
03
09
04
0F
FC
07
0D
00
FF
0A
04
09
FB
02
FD
0C
00
FB
FE
0B
01
02
FD
07
FC
0B
EE
FE
FC
06
EC
FE
04
06
EF
13
02
03
EC
11
02
06
F9
09
FE
01
FC
01
04
EF
FC
03
FE
01
01
FF
FE
00
05
0D
01
FE
FC
0A
FD
02
FE
04
01
F5
FF
0B
FC
EE
FD
12
FD
F5
FA
0C
FC
EE
FF
FB
FE
EE
05
04
00
F2
06
0B
FC
FC
FF
0A
01
0C
FE
04
02
0A
FD
FF
00
07
06
FE
00
0B
03
05
02
FC
FF
0C
01
FC
05
0F
03
FE
F8
0C
01
F9
F8
07
FE
FA
F7
0E
02
FF
F1
07
FD
02
E0
06
01
06
E3
07
FD
FF
EA
08
FF
F6
ED
0A
FC
02
F7
0C
FF
F1
01
05
00
F0
00
00
FF
03
00
07
01
00
F0
FC
03
04
F3
02
01
F7
F7
07
02
FB
FA
06
FB
F5
F4
10
FC
EE
F7
0A
FF
ED
F8
07
00
F3
FD
06
FF
F4
FC
07
FC
FB
08
04
FB
04
02
0A
00
12
02
06
FC
0C
0B
03
FB
08
07
02
FE
F4
03
0C
FF
EB
05
07
FD
EA
EF
07
FC
EE
E5
03
03
FC
E5
FF
04
F7
E5
F6
03
02
DE
F1
FE
04
EB
03
01
04
F2
10
02
05
EE
11
FF
FB
FA
13
04
01
F9
FF
00
F9
FC
FA
FE
03
FC
01
FC
F3
F6
F5
FD
02
ED
07
FE
F5
F0
02
FC
F8
EA
09
FF
F4
F1
08
FD
F0
F4
0A
04
ED
EF
0B
03
F0
01
05
FD
F6
05
06
02
05
FF
00
02
10
03
01
FD
09
05
00
03
06
09
03
03
F4
0E
03
FD
EF
FC
03
FB
F0
F4
03
00
F6
E9
F8
FB
FC
DE
F7
FD
FF
D9
FE
01
FA
E1
F5
00
F5
E9
F4
FB
04
ED
F6
FD
17
E9
F9
FF
0D
EA
0E
FE
FF
FC
01
00
09
FA
06
FB
03
FC
00
04
13
FA
F2
FE
FA
F2
F3
FC
FA
F0
F6
FF
F9
F0
FA
FE
FA
EF
04
FF
F8
EE
07
00
F7
F3
08
FD
F6
FD
07
01
EC
06
FF
FB
FD
00
03
FF
FF
FC
FF
02
0F
04
FB
FC
16
0E
FB
00
0B
00
FC
FC
FD
F5
FF
02
F9
E9
F9
FB
F3
DE
F3
01
03
DC
FB
FF
09
DE
F7
FD
FF
E6
FC
03
03
F1
F8
04
FE
F4
FC
FF
05
E8
EF
02
14
E2
F1
FD
1D
EB
FC
FC
14
EF
FB
FC
11
F5
00
FE
09
FF
F7
03
0C
F9
F8
03
00
EF
E8
FF
FF
FA
ED
FD
FD
F4
F8
FE
FE
EE
02
FE
00
EF
07
03
F8
00
07
FC
F1
08
0E
FD
EF
FC
F9
FF
F8
FE
03
03
F7
FC
03
02
10
07
02
01
15
08
FD
FC
11
FA
03
FE
01
E3
04
FE
F3
D8
03
00
F6
DE
FE
FD
07
E3
FC
FF
13
E8
FB
01
0B
F3
ED
FE
01
FC
EE
00
01
F2
F9
FE
0E
F2
EC
FB
0F
ED
F6
FC
22
F4
FB
01
19
ED
FC
00
11
FC
03
00
FE
00
F9
FE
0B
F9
FA
FE
04
F0
F4
02
F7
F6
F3
01
00
F0
F6
FE
0C
EC
F4
01
FD
F1
F5
00
FA
06
FF
FE
F7
06
06
02
F2
02
F7
FE
F7
FD
FC
02
00
03
03
FD
10
04
0D
01
1A
03
0C
FB
11
EE
0B
00
05
E3
0B
03
F5
EC
0B
FE
EE
F6
06
FC
0B
FB
04
01
11
FD
FE
04
0B
02
EC
FE
FC
04
EB
FC
0A
06
E8
02
0B
01
DE
02
07
FD
EB
02
0F
FA
FB
01
0E
E9
FD
01
08
F6
05
04
F7
04
FB
04
08
F8
FB
FD
04
F5
F8
03
F6
F4
02
02
FB
EE
FE
02
06
F1
F1
01
01
FC
EA
02
FE
06
F0
FD
FA
04
F3
02
EE
04
F3
FC
FB
FB
01
FE
03
03
06
03
06
0A
15
FD
10
FC
14
02
06
EE
15
FD
F7
E9
0E
FF
E5
FD
0B
04
EB
0B
0D
01
0B
12
09
03
0E
15
F9
FB
0E
11
FC
FB
FD
10
ED
FF
04
0A
E1
FB
01
FD
E5
00
05
FE
F3
FB
07
F5
F6
FD
04
EF
FE
02
12
00
02
04
FB
02
FE
01
FA
00
F4
FC
01
F6
E9
FF
EF
EC
FD
FC
02
EA
F9
FB
F9
EF
F1
FC
02
FD
EE
FB
F7
06
F4
FF
F8
07
F3
FD
FC
FF
F7
FC
F8
06
08
01
F9
02
0B
FB
0B
FA
0F
00
0D
F5
10
03
0A
FE
14
02
EA
FD
11
FC
E8
0A
0D
FF
EE
08
06
00
FF
10
04
FC
0C
0B
03
FB
0A
0D
03
00
04
13
F6
00
00
10
F0
02
FF
08
F5
01
05
06
EE
FE
01
FC
F9
FF
05
F5
06
02
0B
04
07
FC
FD
00
02
FF
FB
01
F9
FD
FC
FD
EE
00
F5
F1
03
00
03
F0
F2
02
F2
EF
F0
02
F8
02
E3
FE
F4
07
F6
FC
F8
00
F2
03
FF
FF
F3
00
FD
05
FA
02
04
00
07
FC
0B
F3
09
FE
0E
02
0C
FF
FF
02
12
FB
ED
0E
07
FB
F3
0E
09
02
F2
04
02
00
09
02
FA
FE
08
0D
FC
00
05
07
04
01
0C
10
04
02
FF
09
FB
FD
FD
07
01
02
06
08
FE
02
00
F5
00
03
09
F7
06
01
11
00
F6
04
02
FE
FA
00
01
00
06
FE
F6
F7
04
01
FE
FE
FE
FF
F6
F0
E4
FC
ED
F2
DB
01
F7
06
E5
FD
F0
06
EB
FE
00
06
EB
02
00
FF
E9
02
06
04
E8
FD
08
00
F5
01
07
F5
FA
01
04
08
0B
FE
F8
10
09
FF
FA
10
FC
FD
F5
0C
04
FC
F2
03
FB
FA
00
05
FA
FF
FE
04
F4
02
01
10
03
FC
FE
11
04
00
FA
0E
05
FD
F3
03
0B
03
07
FA
07
02
0D
07
06
01
02
FA
07
FD
0A
FB
F5
FE
09
FC
F9
03
02
03
08
FD
F9
03
0E
02
F9
FF
FA
02
FF
EF
F0
FF
FB
FB
D6
FD
F1
06
E6
FD
EE
04
DE
01
F9
05
E3
01
FE
FC
DC
FF
05
03
E2
03
08
FB
E2
FE
05
02
ED
02
01
0D
FD
03
F5
0F
03
03
F2
08
FB
FC
F0
05
FD
FC
FB
02
FE
01
FD
FD
F9
FB
F9
08
FD
00
F2
0D
FF
01
EF
11
FE
03
FC
08
09
02
FB
03
0C
FE
02
05
0D
FF
06
18
13
FC
FD
F2
0C
02
05
F4
07
FF
08
FC
FA
FF
FC
02
06
02
FB
FB
0E
FF
F3
00
03
03
00
FF
EF
FF
F6
FD
E3
FE
F2
04
EC
FB
F9
07
E6
00
F3
07
E5
FC
FB
02
E0
01
F8
02
DC
01
F9
08
D0
02
02
FE
D8
FD
02
03
EC
02
FB
11
FD
FC
ED
05
F2
00
F6
FE
F1
FF
FA
FD
00
FF
FE
FA
02
01
FD
FE
06
FF
FB
09
FE
03
F0
01
02
FE
FB
F9
0C
FE
FF
02
0C
01
02
04
13
FC
FB
16
07
FC
F1
ED
0E
00
01
F8
02
04
09
FE
04
FF
02
FC
0A
02
F7
FC
03
FF
F7
FD
06
03
FD
FC
F5
05
FE
F5
F7
FD
04
FE
FD
03
04
F8
F6
01
FF
02
FC
02
00
FF
F0
FB
FD
01
E2
FB
00
00
D4
00
09
FB
D9
00
07
FC
ED
FD
05
02
FA
FD
FA
FF
F7
FB
FB
00
F3
FF
05
FE
03
FF
FA
FD
05
FB
00
FD
06
FE
FC
F8
F9
FF
F6
03
FC
01
01
FA
00
02
04
FA
0E
00
09
04
11
FA
04
0C
FF
01
FD
F2
F8
04
07
F8
01
03
13
FF
F3
03
F1
FF
07
FE
FC
F6
FF
FF
FB
F8
19
04
F0
03
FC
01
04
FD
00
FF
0B
F8
0A
00
0B
02
03
01
05
04
07
FE
03
FF
03
FE
FF
FA
FD
FB
06
F6
FC
FE
0E
03
F1
FC
03
04
F6
00
05
04
FD
03
02
02
FC
FD
07
08
FC
02
04
0B
04
FE
FE
05
03
02
00
F7
0B
FE
03
F6
02
03
03
F9
FA
03
02
F8
FD
FC
0C
04
04
FF
09
0A
06
FB
00
08
0A
FB
FC
ED
F9
02
04
F8
01
03
03
FE
01
04
FE
FF
F9
04
FD
FB
FF
FE
F3
FF
1D
FF
F9
0A
FF
04
00
FC
07
FE
07
F9
06
02
0A
06
09
FB
09
01
00
FD
04
03
0A
FE
00
04
0A
FF
F8
03
0D
FF
FD
04
10
FE
00
08
07
FC
04
06
FF
00
03
0C
FD
00
02
0A
FC
FC
FC
09
FA
01
F9
04
01
FA
04
FE
FB
FE
04
F4
F9
FF
FE
FB
FF
FF
03
00
FB
03
01
01
05
FB
01
03
11
02
FB
01
13
FB
01
F5
FC
FE
08
05
03
FC
03
03
03
00
FF
FC
01
FD
01
00
FF
FF
FD
01
0C
FD
F0
14
02
FF
FC
05
05
03
07
00
0B
00
0C
FD
08
00
09
00
02
FD
09
06
09
FE
05
08
0E
00
F6
00
0B
FC
FC
01
0A
02
00
08
05
FF
FC
11
FA
FC
F5
11
FE
FE
FB
0F
FC
00
FC
07
FC
FC
02
07
FD
FE
FE
F9
FD
02
06
F7
09
01
FA
FA
01
02
F9
03
02
03
FC
0A
09
03
F5
FF
11
FE
F9
FC
03
01
04
03
00
02
01
04
09
FD
FE
FF
07
02
FC
FD
02
FD
01
FE
01
FB
F6
FB
01
FE
F8
03
FF
01
02
FC
04
FD
0E
03
0B
FD
08
F9
03
00
06
05
07
02
0B
FE
01
FE
0E
04
04
FD
00
FB
05
FB
06
FD
03
FD
FC
09
02
01
F5
0B
01
FC
F3
07
04
FC
FC
05
F9
FD
F4
05
FB
02
F3
00
04
FE
F6
FC
02
FB
FF
FB
05
FE
00
F2
0A
FF
F8
04
01
FC
F6
FC
F3
FD
FB
FF
FD
FC
04
FD
FC
FC
01
F5
04
02
0A
FC
FF
FC
06
04
08
FD
03
00
03
FB
FC
02
FB
03
F9
08
00
00
03
0F
FD
03
FC
03
F8
FD
FB
03
FC
FD
06
04
FF
02
04
FE
FC
FB
0A
05
FC
FC
09
04
04
FB
0C
EE
02
FE
0E
EF
01
FC
00
F8
FF
01
FD
F5
06
FE
F6
FB
FF
00
F3
FE
FB
FE
F9
FC
06
FE
F1
F9
0C
FF
F3
F9
11
FD
F8
F7
0D
FE
FF
EC
01
FD
F8
F7
F6
FF
01
F1
F2
FC
03
EB
E9
FE
02
F8
F6
FD
04
FC
04
FC
04
00
FF
FE
05
FC
FD
FC
00
04
00
03
FD
FF
07
03
F3
03
0B
FE
01
0C
01
03
08
0C
FB
03
01
03
F5
03
04
F8
F9
03
02
F7
FA
FD
00
F3
00
FD
11
F3
05
FD
11
E9
03
02
0E
E0
FE
FC
0A
DD
02
FA
00
E9
02
03
01
ED
02
FD
FD
F2
0A
03
02
EB
05
FF
FD
EF
10
FF
F8
F4
0B
04
FF
F6
04
01
FD
F5
01
01
FD
F1
E8
04
00
F5
E4
04
04
F8
ED
04
02
01
F9
05
08
FA
06
04
03
FE
FF
00
FE
FF
FD
FE
04
02
01
FF
FD
03
00
00
F9
FE
02
01
F6
09
04
04
F1
13
04
FB
FD
07
FC
02
FB
FF
07
FC
F9
04
08
03
FD
05
FD
04
01
08
03
FC
06
FC
FC
FB
0B
F8
F8
03
08
EB
EC
FB
05
F1
F5
FD
0B
FE
F2
03
FC
FF
FC
FD
03
F4
FE
03
FE
F8
FF
FE
FE
F7
F6
05
09
FC
F1
FF
06
F7
EE
01
0A
F6
E3
02
0A
FB
E8
FF
06
FB
EB
01
05
FF
FE
04
FC
01
06
FE
FF
00
FC
FD
03
01
04
00
04
03
FE
01
00
01
09
01
F5
FE
FE
FF
02
FE
FD
FC
FE
02
06
FE
FD
0B
FB
02
00
06
02
04
F1
07
0A
FF
E8
0D
10
03
EF
11
06
FF
FA
10
F6
FC
FF
0C
01
FF
00
FB
FF
FF
07
FD
01
FE
FA
06
F7
03
07
07
FD
04
FB
FA
FC
03
FC
05
FB
FD
FF
08
FF
02
F8
07
FD
03
FB
02
F4
FF
02
01
F0
FF
08
04
F4
04
0D
FB
02
FB
0A
00
03
FF
FB
01
FC
FF
00
00
00
FD
01
FE
03
FD
03
FD
03
FD
FF
00
FC
00
03
03
01
FC
FE
08
0D
00
F9
0A
01
01
FC
06
F9
FF
EF
04
FA
03
E1
0B
FA
FC
DF
04
F9
FE
DB
0E
04
FE
DF
0A
FA
02
EF
0A
EF
FE
04
0A
E4
00
FD
0D
F9
FE
E8
FF
08
FE
EB
07
0B
04
F3
05
08
FE
F1
FB
04
FD
F2
FF
EE
03
F8
FF
F3
FC
F7
01
F8
00
F6
FB
EF
FD
FF
03
FC
00
04
01
02
FC
05
FC
FC
03
04
FD
03
FF
FE
00
03
01
03
02
FE
03
04
02
FE
04
02
00
FE
FC
FD
FC
FC
00
FF
FE
FE
FD
0D
01
F9
00
12
00
F2
00
00
FF
F7
01
FD
FB
F7
FD
F9
03
F1
FE
FC
02
EC
04
F2
FF
DE
02
F6
FC
F3
FC
FE
03
E5
04
09
00
FB
03
F8
00
06
FE
F8
01
05
01
F1
F9
ED
FC
F3
FA
EC
01
F8
FD
E7
03
F7
FB
EF
02
F1
FB
FD
FE
F5
FA
F5
FD
FD
FA
02
03
FE
04
FD
FE
02
04
03
FD
FF
04
FD
FF
FC
00
01
FC
02
01
05
FD
02
02
FC
FE
04
FC
FD
03
FC
FF
FD
01
00
FC
02
FF
FC
FC
03
04
02
FF
FD
FE
02
FC
04
00
FD
01
FD
03
FF
FC
01
FB
FD
04
01
FD
02
02
FE
06
FE
FE
FF
0C
FD
FC
FF
06
03
01
FF
FD
05
02
FE
FC
FE
FF
FC
FE
01
00
FC
FC
01
03
01
00
04
FC
01
FF
02
01
FF
00
02
03
FE
FD
FF
01
FF
FC
01
05
FC
00
FC
FE
00
04
FE
FE
03
01
01
FE
FD
FD
03
03
00
00
FE
04
04
00
04
FE
FE
FE
04
04
03
00
01
FD
FD
FF
FE
05
FF
FF
03
07
FC
03
01
01
01
FD
F6
06
FD
05
FA
02
FA
FD
FA
01
FF
02
00
09
F8
06
FB
09
FA
04
03
04
F9
00
02
FF
FD
08
F7
0E
F7
0B
FF
14
F6
02
09
14
FB
07
02
0B
F7
01
FE
0D
FB
07
FA
0F
FD
00
FC
06
FD
01
FD
08
F9
07
FC
FF
FE
FC
FD
03
02
01
04
01
FD
FB
00
04
FD
FF
01
FF
00
03
02
FD
03
03
FF
02
00
FB
FD
07
04
05
02
0F
F3
0D
FE
09
F5
0B
01
02
00
03
00
08
FE
FC
FC
08
01
FF
F8
08
01
F7
04
08
FC
F3
06
05
F5
FE
05
06
F0
03
0B
05
F5
FD
09
02
EB
FB
F6
08
EF
EF
F6
06
EF
F7
F5
09
F0
FB
F4
00
FD
FD
F9
00
08
01
F3
0A
F8
FC
F9
03
F5
06
F9
08
F6
06
F9
0C
F7
04
FC
0E
F6
07
05
0A
F8
FD
07
FC
FD
02
01
FD
01
FF
FE
FD
00
FF
FD
FF
FE
FF
02
00
04
FD
00
F4
0A
09
00
09
F9
08
04
07
F8
05
03
FA
FE
FC
02
00
03
FB
02
FD
00
F8
07
02
F6
F5
0A
05
F9
F5
06
03
F4
F6
0F
01
FF
F1
1D
FF
FB
F8
0C
00
EC
07
0C
FE
EC
FE
04
F8
F8
05
FE
F9
F2
04
FD
F6
EB
02
F9
FB
F9
09
F6
00
FE
FF
EE
F9
FA
02
F4
08
00
FD
F0
FD
09
FF
FD
06
FE
09
02
03
F7
01
00
F7
07
03
08
FD
02
00
01
02
FD
04
FF
FD
01
01
00
FD
FD
FE
FD
F4
08
08
FE
FA
05
0F
FC
F4
F9
FD
08
F4
FD
F3
FF
F6
03
F2
05
FA
FB
F8
09
F7
F6
FC
06
F6
ED
05
0B
F3
ED
06
0C
F2
F4
FC
0F
FB
ED
03
0B
FD
F6
FA
02
FF
FC
FD
09
F8
F2
0A
07
00
F2
08
02
0C
F7
05
FD
06
FA
FB
01
09
EE
FE
FD
05
F0
FD
03
02
F6
01
F8
F8
FD
01
F9
F5
00
04
F7
EF
02
02
02
EF
0A
FC
0E
FA
05
01
FF
0E
F1
F6
FB
FF
01
FF
FD
04
00
04
02
07
FC
07
FE
03
03
01
04
F9
FC
00
05
F2
FC
06
FC
F8
F8
08
05
F6
F9
03
07
F6
F8
00
07
EF
F4
05
03
F3
FC
FA
07
FB
00
FD
04
FD
FD
08
03
04
FA
04
03
0B
FB
05
03
02
F4
01
0D
02
EF
00
0B
FF
EF
02
00
01
F0
FA
FD
06
FD
FC
FC
05
FE
03
FE
08
FA
02
F8
01
02
FF
F4
02
FA
F1
FD
01
F0
FE
F1
F8
06
0B
0C
0A
FE
01
0A
0E
F5
F7
FB
FD
02
FF
FF
01
FD
01
02
03
FD
0B
01
09
02
04
06
00
FC
FD
06
F8
FC
FA
04
FD
ED
03
00
FB
F0
FF
01
F7
F7
02
FF
E6
02
FB
03
EA
03
04
03
F8
F9
00
F7
FE
F8
00
F7
06
FB
FE
01
07
05
FF
04
FE
FA
02
06
F4
FD
FE
06
F3
FE
06
FF
EE
02
03
FB
F8
0B
FF
02
F4
07
04
FA
FD
01
0B
FE
0B
01
06
00
04
FE
FD
F8
08
04
F8
F0
02
07
04
04
FD
0A
FD
02
04
F9
07
F7
01
04
FF
01
F3
FF
02
02
0C
01
02
05
FE
FD
03
0B
FD
F8
FD
0A
F7
F4
F9
FE
F6
F1
06
03
F4
F6
01
00
F0
01
FD
FF
EC
FC
06
FE
F9
02
06
FE
FF
F7
01
F9
FC
F9
FE
FD
07
03
02
04
01
06
FC
00
FB
08
04
07
F5
09
02
01
EF
FD
02
04
EF
06
0D
FE
EF
08
0B
F8
F3
01
04
F8
FE
08
09
FC
FE
04
0A
02
FE
FD
0B
FB
F8
FA
F9
F2
FA
00
FE
FB
FD
0A
F7
0C
FB
FD
03
00
0C
EF
0A
FC
FB
F8
03
0D
0A
04
0D
07
F8
02
0E
04
F6
F5
00
0E
EE
F6
FB
01
F0
F1
03
FD
EF
F9
0A
F9
F0
02
06
FA
F1
03
04
FA
F0
FB
04
05
04
00
FE
05
0D
02
03
0C
0C
0B
06
0C
00
06
03
06
FD
04
07
02
F7
0B
07
04
F5
FF
FD
FF
ED
04
0D
00
F6
03
04
FD
05
09
01
F8
FE
0E
05
F4
F7
04
11
00
F4
0A
0C
06
F1
13
FA
F4
F7
1C
F7
FC
06
18
07
10
03
09
05
08
F9
FF
0C
03
F3
FE
0E
00
09
FD
09
13
FF
FC
16
0F
F5
FA
01
05
ED
F3
FC
0E
EE
FA
03
03
F4
01
05
04
F8
FE
0D
05
F9
03
05
06
FA
01
08
07
03
03
00
0D
0A
0C
FC
10
02
0E
0B
0F
03
04
09
05
FC
06
05
FD
FA
0A
FC
FB
F9
06
07
07
F7
09
00
FB
01
FD
03
FD
02
FD
07
FB
FE
07
06
F6
F9
03
0D
05
F1
0D
12
16
FA
1A
FF
FD
02
26
05
00
F5
14
0B
11
F7
F9
F2
02
FE
03
0B
00
F8
04
04
01
FE
F4
FC
12
03
EF
0D
0D
F8
FC
06
09
F3
F9
F8
11
F4
03
FF
12
F7
FF
0C
10
FA
05
09
1A
FD
01
08
10
FC
0C
03
11
03
0B
00
11
0D
11
FF
FF
04
03
0D
F9
00
04
15
E7
FE
01
03
F1
FF
02
01
FB
03
F7
FF
07
FA
01
08
01
FC
03
00
FD
03
FC
0B
FE
02
0A
08
F8
00
FF
15
FF
01
03
13
12
FE
15
03
05
F2
22
F9
02
F9
17
02
08
FB
FD
FE
07
FE
FE
0D
06
04
F1
10
0D
F6
F6
FF
05
FE
EB
0F
04
F6
02
06
0C
F5
13
FC
12
FB
09
02
11
FD
FF
10
14
F6
05
05
12
FE
03
02
0A
FE
08
FC
0B
02
11
FE
03
03
0D
F9
E8
F7
03
0C
DD
FA
F8
11
E3
FE
F7
09
F7
F9
F8
FE
FE
FF
F2
05
05
FE
F7
08
FA
02
FB
FD
F9
F8
01
09
FF
FF
FE
0B
01
FC
0E
12
06
04
09
0C
0C
04
12
12
03
FF
19
06
04
02
1F
0C
F6
F7
FB
0A
FC
FF
FF
0B
01
04
FE
05
0B
F7
F7
06
05
03
FD
0D
F6
F5
07
0D
03
EB
0F
06
03
F8
0A
00
02
00
02
02
10
07
06
F7
06
0C
02
00
FF
01
0A
F4
FA
06
11
FB
E7
05
08
FC
DE
FB
FE
06
DF
F6
F2
0C
F6
F5
F0
03
F9
F3
F4
06
06
F7
F2
06
FE
F9
F5
05
F7
F9
F5
04
FC
FD
FD
00
01
FF
FF
07
07
06
FB
0A
05
0A
07
11
01
10
03
02
03
FF
0C
FD
09
EF
0F
00
04
F4
F7
09
FF
04
04
FB
00
04
FE
03
06
FA
F3
08
0B
05
00
0D
F5
F2
01
07
EA
EF
12
04
F0
02
04
02
EF
04
06
FE
F0
0E
0D
FE
F7
0F
0B
FA
EE
04
0C
FA
DC
02
07
02
DB
FD
00
FC
E8
F9
01
03
02
FA
FF
0A
05
FD
00
07
00
F7
FD
04
FA
FB
F9
FF
00
F6
F9
06
06
FC
F3
FF
F9
FF
FE
06
03
02
F9
02
06
0A
04
FF
08
11
FB
00
00
0D
F9
FA
00
08
01
FD
FA
08
08
FC
03
06
04
FA
05
04
06
F9
FF
FF
02
01
04
FC
F4
0A
0E
00
05
FA
F4
F8
0C
F1
E2
02
08
F8
D1
06
01
00
E4
0C
FD
F8
EA
0C
09
00
E8
06
03
FC
DC
04
05
05
DC
FC
FF
04
EB
FA
F9
04
F5
FE
03
0A
06
FB
0B
0A
06
F9
07
02
FF
F4
02
F4
F9
F3
FA
FE
01
EF
FC
FB
F6
EA
FC
05
FA
00
FE
FF
FF
05
FD
FF
07
14
FC
FD
01
0B
F6
FB
01
11
F8
01
FA
14
03
F8
FF
07
07
EB
0A
0A
04
F5
01
FA
03
F9
03
FE
03
00
FE
02
F3
F9
05
FC
0A
EF
EE
F9
01
F4
E0
05
F8
FA
DA
FE
F4
04
D9
0E
F2
03
E2
04
FD
02
E1
05
01
03
E6
04
05
04
EA
00
FC
FE
FC
FD
F9
FC
03
02
FD
05
0A
07
FF
06
FF
FC
FE
F8
02
FC
F7
F7
FE
F5
FC
F9
FA
F8
F7
FF
FF
F3
F8
FF
FE
F9
F9
FE
FC
04
FE
F5
08
04
FB
04
FF
0C
F7
08
06
12
F3
07
08
1A
01
F8
01
FF
07
E4
08
09
0D
EC
05
FD
03
09
02
02
04
01
02
01
04
00
00
FF
FF
F9
FB
FD
F5
08
EB
03
F3
01
E1
FB
ED
05
E2
07
ED
03
EC
0B
F6
02
F3
0C
FE
09
F6
FF
03
08
F9
FF
06
FB
01
05
03
FD
08
01
02
FD
0A
09
03
FF
04
06
FB
F9
F7
08
FD
FC
FB
FA
F3
F9
04
00
F0
FE
06
FC
EE
FB
08
FE
F3
F9
FC
02
FB
F5
02
02
F5
01
04
03
F5
05
03
08
F8
04
06
16
04
EB
09
02
02
E8
0E
FF
0B
F6
05
FF
03
03
FD
FB
00
09
FD
FB
00
01
02
FA
F4
F4
03
02
EF
00
02
00
F2
FB
F7
FC
EE
FE
EC
FF
EB
01
01
0B
F6
FD
07
04
F7
FD
08
01
04
FD
05
FC
08
01
02
04
0D
02
0C
04
02
FC
07
01
03
00
00
07
FC
F9
F6
FD
F9
FF
FC
FF
F2
FC
FF
07
EE
F6
00
02
EB
F9
08
01
F3
FE
F9
01
F6
FE
FD
FF
F6
FE
F7
01
FC
07
FF
01
FA
07
05
06
05
EA
0D
00
04
FA
09
0C
0A
09
11
F8
01
0F
FC
FE
FB
05
02
FF
00
0C
F9
FB
EF
F8
0C
01
F2
FB
08
FC
F0
04
FC
FB
F5
01
04
05
F4
03
0D
05
F8
FC
03
03
FB
00
03
FF
FF
FE
04
F4
02
00
06
F8
0D
01
06
FD
07
00
FE
FE
0C
FF
F9
03
FB
F7
FE
03
F9
FA
FB
FD
F4
F8
F9
00
F4
F4
05
F8
ED
FB
0A
FC
F6
01
FA
03
FC
FF
F9
F8
F9
FE
FA
F6
F9
FF
FB
02
FD
FB
01
09
07
F1
05
F7
0E
08
07
09
0D
F0
FA
01
FF
FE
FA
FA
FA
0C
FF
FE
FB
05
FF
01
F1
ED
08
04
E6
F6
0A
F9
F5
03
0C
F3
F0
03
0D
00
F9
FE
0C
07
00
FF
03
0B
F6
FB
FB
05
F5
FF
01
03
FE
F8
FF
FA
05
00
F3
FB
0E
FD
FA
0B
0B
FD
03
10
02
FA
FC
04
03
F1
01
FF
FE
F7
FF
FE
F8
FA
FC
F8
F3
05
03
FA
F8
07
FC
FC
F6
FF
F2
05
FC
F6
F3
FF
FC
FA
01
FC
0A
FC
FA
FE
17
FC
FF
09
06
F1
0A
06
07
F5
FC
FE
01
02
01
FF
FC
09
04
0B
FB
F8
03
0A
EF
EF
0C
09
DD
FF
FF
FA
F9
06
04
F9
FC
F9
0B
FD
02
00
0D
07
02
FE
07
0F
FD
FA
01
08
FE
00
FB
07
04
FC
FB
02
04
FE
F6
FD
05
00
05
07
FF
FC
07
0D
05
FB
0A
04
09
F2
FC
FA
06
F6
F9
FB
F6
FD
FB
02
FC
02
00
01
00
04
00
01
F8
FA
FE
FD
F6
FB
F9
F9
F9
F6
02
F1
09
F8
04
F1
14
FF
05
05
09
F2
08
02
00
FF
00
04
FE
FE
FB
06
02
FD
05
FB
FD
F5
05
03
F0
ED
FF
02
F5
01
07
02
FB
02
F9
02
FB
08
01
01
03
08
02
FE
00
FE
FD
0E
FB
FD
FC
07
F8
FF
FE
03
00
FB
00
02
05
FB
00
05
FE
02
09
02
02
FD
08
0A
FB
02
03
04
FA
FE
06
FC
FA
F9
FF
F9
F4
F8
05
FB
F7
FE
08
01
F9
FA
FD
00
FE
F8
00
FD
F5
F5
05
FC
00
EA
09
FB
0E
F0
0F
FC
0E
F6
02
10
F5
F4
0A
02
02
06
FA
02
03
01
FF
06
01
02
F9
03
FE
F5
0C
19
00
F6
FC
02
07
FE
FE
0D
04
02
FF
09
FA
07
00
08
FF
02
04
08
F9
FC
FA
09
04
FE
F8
0F
FB
00
01
08
02
FD
04
0D
F9
04
04
0A
FA
03
09
03
04
03
06
08
F5
FF
FE
01
FA
01
02
05
F9
01
04
01
FB
FE
08
03
FB
F7
07
01
07
F9
02
F6
08
F1
07
F9
01
F3
08
F6
05
F3
0A
FB
11
F0
11
FC
05
05
07
FE
FC
FB
FE
FF
FD
05
FD
04
FB
01
02
FC
FE
04
FF
FE
FB
07
01
08
0A
03
FA
05
0D
01
FC
02
0B
01
F8
07
08
FC
01
03
01
FC
04
0D
06
FB
00
0C
01
FD
01
0C
02
FC
05
0B
FC
FF
08
01
F9
04
05
FC
FF
06
06
00
F8
03
02
00
ED
02
09
03
01
0A
0F
04
FF
04
0E
FF
06
02
13
01
07
F7
04
FB
11
EE
01
F7
0E
EE
FF
FA
0D
F6
05
F5
18
F0
06
F3
14
F9
0C
FB
08
04
08
03
01
F5
F9
FD
FD
01
00
03
FE
04
00
FC
03
FF
FF
01
FF
0E
FD
F3
F8
06
02
FC
FA
09
05
F7
F8
12
F9
F2
FC
08
FD
F1
02
FE
01
FC
05
FB
06
00
FC
FE
07
FD
04
04
FD
01
02
01
07
FC
FD
02
FF
F1
FE
09
FE
F3
FA
00
08
FF
F8
0A
11
00
05
07
0B
F6
07
FC
0D
F4
12
F4
0D
F3
18
FD
0D
FA
17
F7
08
F2
15
E8
04
F2
1B
EE
03
F0
17
F7
05
03
09
EF
13
06
01
F8
05
09
FC
FE
04
02
01
04
FF
FD
04
FC
FD
FC
FF
FD
FF
01
05
04
FE
F9
00
FA
F7
F7
F7
F3
F5
ED
F2
02
F8
ED
F6
01
0B
EA
F0
08
0D
E8
F8
08
0F
F6
F4
0B
05
EA
FE
0F
05
EC
FB
02
FF
ED
F3
08
11
EF
FA
02
06
F1
05
09
0B
F9
0A
07
16
EF
10
0F
15
E5
1B
03
05
E4
1D
00
02
ED
0F
0D
0E
F4
1C
FD
01
F0
23
F2
FF
FA
17
F2
FF
FA
17
F6
FE
FA
10
F7
08
02
01
F6
01
06
03
FB
03
FC
FC
00
04
FD
03
FD
01
FE
FE
FC
FD
FC
03
FE
FF
FF
06
07
02
FC
0B
F5
F4
FA
10
FA
EC
F1
03
00
EC
EE
00
0E
09
F2
FE
0E
12
F4
FF
17
FF
ED
FD
1C
03
FC
07
19
FC
F7
0C
0E
FE
FB
05
10
0D
F8
16
1B
05
FC
0D
14
06
F7
17
17
F4
F8
1B
18
F5
EC
1C
20
FF
F6
11
14
FE
F9
14
13
F8
FA
12
11
E9
FB
04
12
F1
08
09
0B
00
08
06
03
FF
01
F8
05
05
03
01
01
FC
FC
00
FC
FF
FF
04
03
FE
04
FD
FE
01
03
FD
FE
05
01
01
00
02
00
FC
03
07
FD
F2
05
0C
FD
01
0F
12
F2
01
0C
0E
F8
07
09
11
FC
06
0D
12
F4
00
09
0B
FD
0C
0B
0C
FC
07
0A
0A
F5
FD
08
10
FD
0B
14
0F
F5
0D
14
19
FC
FD
11
0B
FD
00
09
0E
F4
08
02
F8
FC
09
06
F5
FB
0A
FC
FE
F5
FF
04
F9
FC
05
0B
F8
FA
0B
08
FE
04
02
00
02
04
02
FE
FD
FE
04
FC
FE
FC
04
FD
FE
00
02
04
01
03
04
FC
FE
03
04
FE
01
02
03
03
FE
03
FF
FC
FC
00
FD
01
00
FF
02
01
FF
01
FD
03
FC
FE
00
FD
03
FC
04
FC
02
FF
02
03
04
FE
06
05
FA
F8
03
06
F4
FC
01
FF
02
02
FD
FC
00
02
02
03
FC
FE
05
04
01
FC
02
04
FC
00
02
FD
03
00
00
FE
00
02
02
02
02
00
00
02
03
02
04
FC
02
02
02
FC
00
FC
01
FD
FC
FC
FB
FE
00
04
03
04
FF
04
FF
01
FF
FE
04
04
FD
03
FE
05
FF
FC
FD
03
03
04
FE
FE
01
01
05
00
01
FD
02
0E
F4
F7
00
0B
F4
F6
FF
08
FA
F8
07
04
FA
01
FC
07
FF
FA
05
06
FC
F7
05
0A
F3
F9
08
0A
F6
FB
0C
FD
FC
FA
15
0E
EF
F9
13
13
F8
F7
09
0F
F2
F8
FA
11
F4
F3
0C
0F
EB
FA
05
0A
F0
F4
04
0C
F6
F6
04
06
F6
FC
FE
07
FB
FF
FC
FD
03
FE
FE
02
FD
FC
04
FD
FD
FE
02
01
FC
04
00
FF
FB
FF
FC
00
03
FC
03
06
FA
01
05
07
F7
FF
10
09
F1
FB
03
0D
FE
F6
00
0F
F7
F8
FD
0D
F6
F2
FC
09
EF
F4
EE
06
FC
F1
FB
0A
F4
F1
FD
1A
EC
F2
02
09
FE
E1
FB
FF
FF
E1
F7
05
06
EB
F8
07
06
F3
0E
05
FF
FE
04
08
09
04
FD
07
F3
05
FD
0C
F4
00
FC
0E
EC
00
FB
12
EC
FB
FF
10
EB
F8
09
0A
EC
01
FE
0F
F8
01
05
05
04
FC
03
03
04
FD
FE
FD
03
01
01
04
01
01
FC
04
FD
FD
08
F7
07
FC
06
02
F4
FE
10
0A
04
FE
FD
05
FB
F6
FC
0B
F4
F3
FF
14
F1
EB
F7
08
F1
E9
F9
FE
F1
EC
02
FF
F2
FA
F8
07
FA
E5
05
FD
04
DE
04
04
FE
E8
09
01
05
E8
10
03
01
E1
10
0B
08
FB
05
09
0D
01
08
FF
0E
04
F9
07
03
02
07
03
05
FC
F8
05
00
FE
ED
05
FA
FF
FE
01
E8
FF
08
FA
F4
F2
0E
FA
00
FB
0B
FB
00
02
00
FC
FF
03
02
04
01
FD
04
FC
FD
01
14
F4
00
FD
0D
F0
0B
06
FC
06
F4
12
F9
12
F9
FA
FB
0E
FE
FB
F2
0A
FA
EA
F1
09
F2
E5
FA
05
F8
F8
FD
05
F3
FD
03
04
FE
F4
0A
03
FD
F5
06
09
00
EA
07
FE
FF
E7
0E
F7
03
F4
02
FA
FC
FC
F8
F8
F9
07
F8
F9
02
04
EF
FF
FC
FF
F9
F8
FB
08
FB
F3
FE
0C
FD
F3
FA
15
04
FA
FE
0F
04
F7
0C
0B
06
F4
08
F8
10
FA
00
F5
FA
00
F9
00
03
FD
FE
01
FD
03
01
F5
02
02
F8
F6
07
05
07
02
FC
11
F9
07
FD
13
FC
07
F8
0E
02
03
F5
0A
FB
02
F4
03
F9
09
F6
00
FD
09
F9
06
FB
0C
F3
FE
02
08
FB
05
FC
FF
FE
00
F9
02
FA
FB
04
00
FD
02
FF
06
F4
FE
FC
07
F3
EF
07
FD
F7
EF
FB
F0
F6
F1
FD
F2
F7
ED
FD
F1
F9
F1
F8
FA
F7
F6
FF
02
F5
F6
FD
09
F7
F1
FC
05
03
F4
FE
EB
06
FE
F7
00
FD
02
FA
01
FE
FE
04
FA
FD
FB
00
07
07
F9
FC
F2
0B
0A
FF
FF
03
10
F9
10
FF
FC
F7
00
F5
FE
F1
00
F4
07
F9
06
F5
FC
F6
0E
F2
FA
F8
07
F0
FE
F8
03
EE
00
FB
05
F0
FD
FD
0A
F7
FF
F0
09
FB
00
F6
FC
F1
05
F8
05
F5
FE
FC
00
00
FB
00
F9
02
EF
05
F8
FE
E6
FF
FF
03
D9
02
05
02
EF
F9
00
00
F4
01
FE
FE
EC
FD
03
02
F1
FF
EF
05
F1
05
03
09
FF
07
F7
05
FB
FB
03
04
FF
01
00
04
FF
FE
02
05
FA
02
F7
06
04
F7
FC
F8
0E
F1
03
EE
FA
F2
EF
F3
FA
F2
F6
F8
02
EF
02
F3
FA
EB
05
EC
F5
F1
02
F7
FF
EF
F6
F0
F9
F1
FF
FA
FF
F1
FD
FC
02
F4
FD
FD
0B
FC
FA
08
0B
01
FB
08
FD
0A
FA
09
F8
FF
F2
14
EB
00
FC
08
E3
FB
F7
05
E1
08
FA
07
EB
0C
FD
09
E5
0B
08
06
EC
02
0B
01
F7
09
FE
00
FE
10
05
FE
08
0A
FB
0A
F4
FD
01
00
03
F5
FD
07
F8
FB
03
02
FE
01
F6
FD
00
F7
F8
F4
0B
EC
F5
F3
01
E5
F4
02
FC
EC
FB
02
FB
E4
FB
F6
F8
E7
04
F5
FF
E7
04
F8
01
EA
FF
01
F2
F5
FA
06
FA
F4
F9
09
0D
F6
FB
07
10
FC
FB
11
09
09
F3
12
F9
02
F6
11
F2
04
F6
15
EB
00
F7
09
E9
07
F5
09
E8
07
FC
09
E4
09
07
0A
EB
01
04
06
F2
09
09
04
FB
15
09
F5
FC
24
FB
01
06
05
FA
0D
FE
01
FC
0A
FD
01
08
12
F0
F6
03
FF
10
FB
FE
FA
13
04
F2
F2
11
EE
EF
FF
07
E2
EC
08
FA
E6
FE
06
00
E7
FF
01
F9
EA
FD
01
02
EA
FE
0A
FD
F4
FC
09
F9
F3
FD
0E
FA
FE
F5
0F
08
08
FA
15
0F
01
FB
0E
06
00
FD
07
F8
FD
FE
0D
F1
00
FC
07
EB
03
FF
08
E1
FF
01
FC
E7
FF
02
FC
F7
06
05
04
FB
01
03
07
FE
FF
04
FC
03
18
FB
02
00
14
FC
06
FA
0F
09
FC
09
04
02
07
FE
FC
02
09
FE
F3
FA
FA
FE
FA
F7
F7
FF
07
EE
FC
08
F7
F4
02
07
EA
F2
0B
F6
F7
F7
0B
04
F3
04
07
03
F2
06
03
FD
F2
05
08
F7
F8
02
08
00
02
FF
0C
02
0A
F5
11
0E
FD
F1
16
0B
F1
FF
0F
FF
FD
02
07
EB
FB
FD
02
EB
F6
F2
FF
EF
FD
02
04
E9
FE
09
FF
EC
FD
01
FD
F6
F9
06
01
06
F7
02
07
02
F8
0D
06
F7
10
10
11
E9
1A
04
0F
F8
0F
03
05
0B
FE
FB
0A
00
FF
FA
05
0C
EB
FC
0D
F0
F8
F6
05
00
F1
E9
05
08
F3
EB
FF
FE
FE
E6
07
FA
07
F2
0C
09
FB
02
06
06
FE
05
00
FF
FB
08
03
03
01
02
07
05
0A
FB
04
05
FD
EE
0A
06
EA
FD
12
06
F2
06
07
00
FA
03
FF
F4
02
06
FE
F0
FC
FC
00
F5
03
02
05
FD
03
0B
07
03
F3
10
FE
02
F6
0D
00
00
F0
0A
0A
F3
EF
0E
17
E4
FC
07
13
EE
0D
F3
15
F4
FE
FF
05
05
F7
FC
04
03
FD
FF
06
02
F7
02
0D
F7
FB
F3
0C
F7
FD
ED
14
02
F8
EC
FF
F7
06
F0
06
F5
0C
FA
05
01
FB
09
01
06
00
07
00
06
01
0D
FF
0C
06
07
FA
07
FD
03
F2
07
F4
0C
F8
07
F6
0C
00
04
F3
11
00
00
F9
08
FF
08
F8
01
01
07
FC
03
05
0E
07
05
07
0C
06
11
00
0B
F7
12
FA
02
EF
03
FC
0B
E5
07
0D
FC
DC
0D
00
F8
E4
0B
F3
F3
01
F5
0D
F2
FA
FC
F7
0C
F6
01
FA
04
FE
FC
FF
01
FB
F9
0C
FC
FB
F9
03
F7
01
F3
03
FD
01
FA
02
F0
00
FD
06
FC
0B
06
F8
FB
0B
02
F6
08
03
0C
FC
08
0B
0F
F8
0B
09
0C
F3
04
03
0D
EF
FE
FF
11
F4
04
FE
0C
00
06
FA
13
F9
04
FF
0B
F9
0B
07
05
FD
09
0A
02
04
0F
01
06
0B
14
00
12
FF
12
F5
0C
02
13
EF
07
F9
0E
EB
FC
FC
0D
DE
03
FF
02
E4
07
F5
F5
F7
F3
FB
F5
0A
F7
F5
FD
07
F9
09
F1
04
FD
02
FC
FB
FE
06
FF
F9
F8
04
F7
0E
FC
FF
F6
0F
04
FC
F8
03
FA
FD
FD
0B
07
FC
FF
0A
0B
FB
08
0F
0F
F4
03
12
12
FE
08
0E
0D
F8
FE
06
13
F5
FE
02
0F
F9
00
00
0D
02
FE
09
0A
FD
00
0C
0B
FA
01
11
0B
FF
FC
08
06
05
09
FF
0E
04
13
F7
0E
04
14
ED
05
09
15
F3
FB
FE
14
EC
F6
00
0A
EF
FF
08
F8
FB
FA
F1
02
01
F0
EF
FA
1C
FC
FB
00
06
FA
0A
F5
00
02
01
00
00
FF
FA
FC
FA
06
F1
EF
19
02
03
EF
0F
FC
09
F1
09
F6
04
F8
0C
FF
01
00
06
FF
08
03
0C
08
FC
05
0C
0F
FE
06
0F
15
F2
00
05
0F
F2
00
06
07
F8
09
FF
0D
FB
03
04
0C
FE
FB
07
06
F8
F4
0F
11
04
FA
0B
09
03
07
FB
06
08
15
F3
07
0F
16
EC
03
00
15
EC
F2
FB
12
F2
F6
08
FE
F4
EA
0E
FE
F7
EE
F0
07
0E
F5
F1
E9
1B
00
F3
03
0F
02
03
03
02
FB
00
00
00
F9
FA
FB
FE
04
F4
F2
1F
02
FC
02
0F
00
0A
F9
0C
F1
08
FD
09
F2
00
09
0F
F8
05
04
0B
FD
0A
01
0D
09
02
07
10
0D
FB
0D
12
12
F5
FF
09
06
F1
FD
02
07
F5
0A
00
06
F3
FB
0B
0C
F3
F9
0D
05
FD
F4
05
00
FD
02
F8
FD
04
09
F1
FF
FE
0E
F9
F9
F5
14
00
E4
F9
10
F8
EE
03
00
F6
E9
05
FD
F4
F1
EF
0D
0C
EE
EB
F5
14
FA
05
01
08
03
FF
04
FE
FF
07
03
FA
FC
F5
FD
02
04
F5
FE
19
FA
F5
FC
13
F4
03
F5
0D
F2
07
F5
0F
E5
03
FF
0F
E6
04
01
10
FA
06
F5
11
F9
00
05
1C
FB
FE
08
1A
FC
F4
04
13
03
F6
06
09
FA
F5
02
09
02
F7
FA
0F
01
01
FB
0A
F8
03
03
FD
FA
FD
05
F5
F7
00
FC
F2
F0
00
05
FD
F4
ED
0B
FD
E9
F3
10
01
F7
FE
F9
FC
FE
0E
FB
F1
05
00
09
FA
00
F8
FD
10
FB
0B
FE
FF
FB
09
07
00
FD
03
FD
FC
FB
05
01
05
06
F9
F9
14
F8
F6
FE
03
EA
F8
EB
06
DF
03
ED
0C
E0
0B
FA
0D
D9
0C
F7
0E
E0
0A
F6
0D
E6
04
FF
0C
F9
07
01
0F
FD
F8
0E
11
F8
F5
06
0D
F9
FC
F9
0A
FB
03
F9
09
FF
F8
01
02
F2
04
07
FF
F3
FA
06
F5
ED
02
FA
FA
E2
00
FB
00
EE
F7
08
FF
EC
03
06
FE
F2
02
FF
FA
FF
FB
F9
FB
09
FB
0B
FA
0C
F9
F9
16
02
FB
08
13
FB
00
FF
00
F9
0D
00
FA
FE
06
F4
02
08
F1
EB
19
F5
F8
F8
07
EA
F9
F9
0A
EE
04
F5
00
E8
00
00
FC
DE
09
F8
06
DB
09
F6
04
E4
06
03
07
ED
05
03
FE
F1
03
07
F7
F5
FA
FF
FD
F5
01
FC
05
FC
F8
FE
09
00
FB
06
04
F4
FF
09
09
F2
FD
0A
01
E8
04
00
05
E1
01
F9
04
E9
F7
FF
00
E5
FB
FB
06
EB
06
FA
0F
ED
06
FA
16
00
04
FF
04
FA
FD
03
1B
FA
FD
05
06
FD
FE
01
FD
FD
0D
FC
FC
09
F7
F8
00
FB
EF
EE
16
F5
F4
EE
12
F6
03
F3
FC
FB
FC
F2
F6
FC
FC
FD
F7
F3
FE
F7
02
FC
01
F9
FB
F1
00
FF
F4
F4
05
02
F4
F2
FA
03
EB
F7
FF
FE
F7
FC
FE
06
F8
F2
00
04
FD
FF
F8
06
0A
F7
01
03
0B
F8
F9
0C
06
F0
F7
FD
06
E4
F1
FB
01
E7
ED
00
03
F3
FD
F4
05
F2
08
F5
17
F2
09
FC
19
FC
0C
00
10
FF
FB
08
0F
F8
FC
FF
05
FA
FD
02
FF
05
FE
02
03
0B
EE
F9
F6
FD
E7
F4
08
07
EF
EB
1F
02
F1
EE
0A
03
FE
F1
FF
0A
FB
F4
F1
13
FF
FA
EF
10
FD
FC
F0
00
03
FE
E9
FF
FB
FF
EB
FC
04
FE
ED
F6
FD
01
F7
EF
00
01
F9
F0
00
06
FF
FE
FE
FC
FD
F5
F4
00
F9
F3
FC
02
FD
ED
F8
FE
04
E1
EC
FC
0A
E9
F6
EB
0B
F9
F7
F2
08
FC
03
F2
0F
F7
06
F7
19
00
01
FC
18
F9
F4
0A
FE
04
01
00
04
FD
FC
00
00
02
01
04
01
04
F6
FC
00
0E
EA
FD
0C
0A
FA
F8
08
06
F6
EE
FB
0E
F4
F1
EE
18
F8
F4
E8
19
FC
F9
E2
0E
01
FC
E5
0F
F9
FE
E9
03
F3
F4
F6
FF
FF
FB
ED
F6
FA
FC
F5
F7
FC
FB
F1
F3
FB
03
F5
FB
F7
02
F3
FD
F5
F2
F5
F6
FB
FE
FB
EF
F8
FC
00
EF
EC
F7
0E
F0
ED
F3
12
F6
FC
F3
11
01
0E
FB
14
F7
04
F1
1D
03
02
F8
13
FD
FC
FF
05
01
06
05
00
05
01
FF
FD
02
FC
FC
FC
F8
02
FB
FE
07
00
F7
08
09
09
FD
F2
0D
07
FB
EA
15
F7
FA
EB
1B
F8
ED
E9
14
F7
EF
ED
0E
F0
F8
EF
06
F7
F8
F7
09
FA
FB
FB
02
FF
FB
F1
FA
FE
FB
F3
01
FA
F8
F4
F5
F8
FA
F0
F9
01
F7
F2
03
FA
00
F6
00
FC
03
F5
FE
F3
01
04
F1
F1
FA
0A
F7
F6
F6
10
02
06
FC
14
05
0F
FE
18
00
14
FB
1E
0B
FD
FC
11
01
F7
03
0D
FF
00
FD
FE
FD
02
FC
FD
04
FF
FF
02
0F
01
02
FF
0E
06
F9
F8
12
13
FA
EB
10
17
00
E5
12
01
06
F3
1A
02
F8
F4
13
FD
F0
FF
0F
F5
F9
00
FC
04
FC
F9
FA
F7
FE
FA
F9
06
F8
02
FF
00
F8
FF
02
FB
FE
FC
FA
05
01
F2
FE
04
01
EE
FD
00
FA
F7
0A
F9
F5
FC
0A
FC
00
0D
F8
04
0B
0F
05
F9
06
18
FF
03
00
15
09
0D
F9
18
00
0C
FF
14
FF
F8
09
06
FF
FF
04
09
02
00
03
03
03
FD
FC
03
FD
FE
01
FD
07
FE
03
09
05
04
02
00
11
05
04
F8
13
05
06
02
02
03
0A
06
04
13
02
04
FC
0D
09
0A
F5
FE
F8
02
EB
0A
FB
FF
F1
0F
FB
04
F1
0A
05
F6
FE
09
F6
04
FD
0A
04
FF
F1
06
F7
01
FC
12
F9
02
00
0D
FE
FB
06
05
F7
03
FD
15
F3
00
FF
12
FB
0B
F8
0D
02
14
FC
03
FD
0B
04
0D
FD
17
FE
06
F8
09
07
02
01
05
01
FE
08
06
03
FC
FD
01
03
01
04
04
FC
03
FE
FF
04
02
01
02
FF
04
02
06
14
F8
05
08
17
F7
06
0E
16
FF
09
15
0E
0F
03
0E
FC
10
05
06
F8
13
0A
FC
F7
18
12
02
FB
1C
0A
09
FB
0F
04
0F
F4
1F
F8
0B
FD
24
FA
10
FD
11
FE
07
FE
18
01
07
FF
14
FA
03
00
18
FF
03
FC
14
01
01
F7
24
09
0C
F9
18
01
08
F9
0C
FF
FC
02
01
FD
08
FD
06
03
FF
03
00
FE
FE
01
01
01
FC
02
01
FE
00
03
FC
FD
FF
03
FC
FE
04
FD
02
01
00
03
FF
03
FE
F9
FE
FB
01
FD
FA
F9
01
FB
09
FC
09
FA
0E
F7
0B
FC
0A
FE
03
01
10
01
09
FC
11
01
0B
02
11
02
0C
FC
07
FB
0A
